{
    "chr_to_ids": {
        "<bos>": 0,
        "<eos>": 1,
        "<pad>": 2,
        "<unk>": 3,
        "\t": 4,
        "\n": 5,
        "\f": 6,
        " ": 7,
        "!": 8,
        "\"": 9,
        "#": 10,
        "$": 11,
        "%": 12,
        "&": 13,
        "'": 14,
        "(": 15,
        ")": 16,
        "*": 17,
        "+": 18,
        ",": 19,
        "-": 20,
        ".": 21,
        "/": 22,
        "0": 23,
        "1": 24,
        "2": 25,
        "3": 26,
        "4": 27,
        "5": 28,
        "6": 29,
        "7": 30,
        "8": 31,
        "9": 32,
        ":": 33,
        ";": 34,
        "<": 35,
        "=": 36,
        ">": 37,
        "?": 38,
        "@": 39,
        "A": 40,
        "B": 41,
        "C": 42,
        "D": 43,
        "E": 44,
        "F": 45,
        "G": 46,
        "H": 47,
        "I": 48,
        "J": 49,
        "K": 50,
        "L": 51,
        "M": 52,
        "N": 53,
        "O": 54,
        "P": 55,
        "Q": 56,
        "R": 57,
        "S": 58,
        "T": 59,
        "U": 60,
        "V": 61,
        "W": 62,
        "X": 63,
        "Y": 64,
        "Z": 65,
        "[": 66,
        "\\": 67,
        "]": 68,
        "^": 69,
        "_": 70,
        "`": 71,
        "a": 72,
        "b": 73,
        "c": 74,
        "d": 75,
        "e": 76,
        "f": 77,
        "g": 78,
        "h": 79,
        "i": 80,
        "j": 81,
        "k": 82,
        "l": 83,
        "m": 84,
        "n": 85,
        "o": 86,
        "p": 87,
        "q": 88,
        "r": 89,
        "s": 90,
        "t": 91,
        "u": 92,
        "v": 93,
        "w": 94,
        "x": 95,
        "y": 96,
        "z": 97,
        "{": 98,
        "|": 99,
        "}": 100,
        "~": 101,
        "\u0080": 102,
        "\u0081": 103,
        "\u0082": 104,
        "\u0083": 105,
        "\u0084": 106,
        "\u0085": 107,
        "\u0086": 108,
        "\u0087": 109,
        "\u0088": 110,
        "\u0089": 111,
        "\u008a": 112,
        "\u008b": 113,
        "\u008c": 114,
        "\u008d": 115,
        "\u008e": 116,
        "\u008f": 117,
        "\u0090": 118,
        "\u0091": 119,
        "\u0092": 120,
        "\u0093": 121,
        "\u0094": 122,
        "\u0095": 123,
        "\u0096": 124,
        "\u0097": 125,
        "\u0098": 126,
        "\u0099": 127,
        "\u009a": 128,
        "\u009b": 129,
        "\u009c": 130,
        "\u009d": 131,
        "\u009e": 132,
        "\u009f": 133,
        "\u00a0": 134,
        "\u00a1": 135,
        "\u00a2": 136,
        "\u00a3": 137,
        "\u00a4": 138,
        "\u00a5": 139,
        "\u00a6": 140,
        "\u00a7": 141,
        "\u00a8": 142,
        "\u00a9": 143,
        "\u00aa": 144,
        "\u00ab": 145,
        "\u00ac": 146,
        "\u00ad": 147,
        "\u00ae": 148,
        "\u00af": 149,
        "\u00b0": 150,
        "\u00b1": 151,
        "\u00b2": 152,
        "\u00b3": 153,
        "\u00b4": 154,
        "\u00b5": 155,
        "\u00b6": 156,
        "\u00b7": 157,
        "\u00b8": 158,
        "\u00b9": 159,
        "\u00ba": 160,
        "\u00bb": 161,
        "\u00bc": 162,
        "\u00bd": 163,
        "\u00be": 164,
        "\u00bf": 165,
        "\u00c2": 166,
        "\u00c3": 167,
        "\u00c5": 168,
        "\u00e2": 169,
        "\u00e3": 170,
        "\u00e4": 171,
        "\u00e5": 172,
        "\u00e6": 173,
        "\u00e7": 174,
        "\u00e8": 175,
        "\u00e9": 176,
        "\u00ef": 177,
        "  ": 178,
        "    ": 179,
        "        ": 180,
        "\n        ": 181,
        "se": 182,
        ", ": 183,
        "in": 184,
        "re": 185,
        "on": 186,
        "te": 187,
        "or": 188,
        "de": 189,
        "st": 190,
        "= ": 191,
        "\n    ": 192,
        "e ": 193,
        "sel": 194,
        "th": 195,
        "self": 196,
        "s ": 197,
        "t ": 198,
        "er": 199,
        "al": 200,
        "en": 201,
        "ti": 202,
        "an": 203,
        "f ": 204,
        "ar": 205,
        "self.": 206,
        "\n            ": 207,
        "le": 208,
        "me": 209,
        " = ": 210,
        "--": 211,
        "ro": 212,
        "at": 213,
        "\n                ": 214,
        ": ": 215,
        "s.": 216,
        "ur": 217,
        "d ": 218,
        "as": 219,
        "fi": 220,
        "tion": 221,
        "ge": 222,
        "):": 223,
        "\"\"": 224,
        "co": 225,
        ")\n": 226,
        "el": 227,
        "mp": 228,
        "t_": 229,
        "ce": 230,
        ")\n        ": 231,
        "##": 232,
        "ing": 233,
        "ue": 234,
        "to": 235,
        "li": 236,
        "ate": 237,
        "ser": 238,
        "# ": 239,
        "ec": 240,
        "lo": 241,
        "ch": 242,
        "the ": 243,
        "ame": 244,
        "', ": 245,
        "\n\n": 246,
        "ri": 247,
        "if ": 248,
        "di": 249,
        "def ": 250,
        "con": 251,
        "for": 252,
        "un": 253,
        "si": 254,
        "('": 255,
        "no": 256,
        "ex": 257,
        "': ": 258,
        "ma": 259,
        "mo": 260,
        "urn": 261,
        "----": 262,
        "ret": 263,
        "ra": 264,
        "ul": 265,
        "pa": 266,
        "name": 267,
        "(self": 268,
        "return": 269,
        "in ": 270,
        "d_": 271,
        "11": 272,
        "y ": 273,
        "):\n        ": 274,
        "ter": 275,
        "is ": 276,
        "\"\"\"": 277,
        "res": 278,
        "ta": 279,
        "id": 280,
        "\n    def ": 281,
        "m ": 282,
        "ty": 283,
        "imp": 284,
        "val": 285,
        "__": 286,
        "pe": 287,
        "ad": 288,
        "ck": 289,
        "return ": 290,
        "ent": 291,
        "impor": 292,
        "up": 293,
        "ver": 294,
        "cl": 295,
        "op": 296,
        "==": 297,
        "il": 298,
        "one": 299,
        "for ": 300,
        "a ": 301,
        "####": 302,
        ",\n                ": 303,
        "import ": 304,
        "to ": 305,
        "ut": 306,
        "tr": 307,
        "la": 308,
        "qu": 309,
        "t(": 310,
        "ap": 311,
        "um": 312,
        "fro": 313,
        "eld": 314,
        "test": 315,
        "is": 316,
        ")\n    ": 317,
        "arg": 318,
        "pro": 319,
        "par": 320,
        ":\n            ": 321,
        "s = ": 322,
        "vi": 323,
        ") ": 324,
        "dat": 325,
        "asser": 326,
        ",\n            ": 327,
        "ing ": 328,
        "ke": 329,
        "Tr": 330,
        "s(": 331,
        "None": 332,
        "\t\t": 333,
        "', '": 334,
        "ol": 335,
        "der": 336,
        "']": 337,
        "['": 338,
        "from ": 339,
        "do": 340,
        "                ": 341,
        "am": 342,
        "True": 343,
        "fa": 344,
        "ob": 345,
        "ct": 346,
        "se ": 347,
        "data": 348,
        "str": 349,
        "del": 350,
        "of ": 351,
        "sion": 352,
        "s_": 353,
        "sh": 354,
        "path": 355,
        "(self, ": 356,
        "t.": 357,
        "jec": 358,
        "bu": 359,
        "not ": 360,
        "clas": 361,
        "len": 362,
        "all": 363,
        "': '": 364,
        "--------": 365,
        "ror": 366,
        "and ": 367,
        "00": 368,
        "\", ": 369,
        ")\n        self.": 370,
        "file": 371,
        "ith": 372,
        "ic": 373,
        ")\n            ": 374,
        "db": 375,
        "sp": 376,
        "sa": 377,
        "s, ": 378,
        "e = ": 379,
        "Re": 380,
        "model": 381,
        ":\n                ": 382,
        "ve": 383,
        "ne": 384,
        "po": 385,
        "ation": 386,
        "):\n    ": 387,
        "self._": 388,
        "ang": 389,
        "(\"": 390,
        "type": 391,
        "get_": 392,
        "so": 393,
        "assert": 394,
        "ab": 395,
        "\n\n    ": 396,
        "he": 397,
        "Fi": 398,
        "ction": 399,
        "per": 400,
        "que": 401,
        "\n# ": 402,
        "lin": 403,
        ")\n\n        ": 404,
        "app": 405,
        "(self):\n        ": 406,
        "== ": 407,
        "or ": 408,
        "\n\n        ": 409,
        "get": 410,
        "key": 411,
        "fo": 412,
        "date": 413,
        "it": 414,
        "ba": 415,
        "value": 416,
        "with": 417,
        "ub": 418,
        "time": 419,
        "re ": 420,
        "t = ": 421,
        "   ": 422,
        "set": 423,
        "), ": 424,
        "and": 425,
        "field": 426,
        "ig": 427,
        "bo": 428,
        "ren": 429,
        "' ": 430,
        "list": 431,
        "sc": 432,
        "ten": 433,
        "stan": 434,
        ")\n\n    def ": 435,
        "====": 436,
        "y_": 437,
        "d.": 438,
        "tex": 439,
        "o.": 440,
        "In": 441,
        "{'": 442,
        "le ": 443,
        "log": 444,
        "[]": 445,
        "ult": 446,
        "cep": 447,
        "objec": 448,
        "form": 449,
        "d(": 450,
        "com": 451,
        "ht": 452,
        "\" ": 453,
        "code": 454,
        ").": 455,
        "########": 456,
        "test_": 457,
        "**": 458,
        "ces": 459,
        " the ": 460,
        "Er": 461,
        "qual": 462,
        "jang": 463,
        "wor": 464,
        "fig": 465,
        "Th": 466,
        "Error": 467,
        ",\n        ": 468,
        "alse": 469,
        "as ": 470,
        "quest": 471,
        ":\n        ": 472,
        "Field": 473,
        "class ": 474,
        "url": 475,
        "djang": 476,
        "db.": 477,
        "\n#": 478,
        "='": 479,
        "user": 480,
        "+ ": 481,
        "1111": 482,
        "),\n            ": 483,
        "out": 484,
        " in ": 485,
        "py": 486,
        "False": 487,
        "\nfrom ": 488,
        ",\n    ": 489,
        "\n\n    def ": 490,
        "col": 491,
        "ff": 492,
        "ho": 493,
        "node": 494,
        "pr": 495,
        "IN": 496,
        "ON": 497,
        "django.": 498,
        "an ": 499,
        "(self.": 500,
        "tri": 501,
        "models.": 502,
        "ou": 503,
        "ag": 504,
        "defa": 505,
        "ER": 506,
        "comp": 507,
        ", '": 508,
        "instan": 509,
        "%s": 510,
        "% ": 511,
        "Equal": 512,
        "cli": 513,
        "est": 514,
        "au": 515,
        "ze": 516,
        "\n        self.": 517,
        "er ": 518,
        "args": 519,
        "cre": 520,
        "sy": 521,
        "che": 522,
        "ini": 523,
        "ment": 524,
        "''": 525,
        "at ": 526,
        "request": 527,
        "//": 528,
        "x_": 529,
        "resp": 530,
        "else": 531,
        ". ": 532,
        "assertEqual": 533,
        "ader": 534,
        "config": 535,
        "et": 536,
        ")\n                ": 537,
        "ce ": 538,
        "ite": 539,
        "pre": 540,
        "cal": 541,
        "'}": 542,
        "Con": 543,
        "p.": 544,
        ")\n\n    ": 545,
        "10": 546,
        "[0": 547,
        "):\n            ": 548,
        "\"\"\"\n        ": 549,
        "be ": 550,
        "ac": 551,
        "es": 552,
        "du": 553,
        "onse": 554,
        "OR": 555,
        "ure": 556,
        "ip": 557,
        "fields.": 558,
        "ist": 559,
        "nam": 560,
        "exp": 561,
        "lic": 562,
        ",\n                                ": 563,
        "')": 564,
        "comm": 565,
        "l ": 566,
        "ble": 567,
        "_in": 568,
        "us": 569,
        "er.": 570,
        " = self.": 571,
        "ase": 572,
        "excep": 573,
        "option": 574,
        "the": 575,
        "            ": 576,
        "star": 577
    },
    "ids_to_chr": {
        "0": "<bos>",
        "1": "<eos>",
        "2": "<pad>",
        "3": "<unk>",
        "4": "\t",
        "5": "\n",
        "6": "\f",
        "7": " ",
        "8": "!",
        "9": "\"",
        "10": "#",
        "11": "$",
        "12": "%",
        "13": "&",
        "14": "'",
        "15": "(",
        "16": ")",
        "17": "*",
        "18": "+",
        "19": ",",
        "20": "-",
        "21": ".",
        "22": "/",
        "23": "0",
        "24": "1",
        "25": "2",
        "26": "3",
        "27": "4",
        "28": "5",
        "29": "6",
        "30": "7",
        "31": "8",
        "32": "9",
        "33": ":",
        "34": ";",
        "35": "<",
        "36": "=",
        "37": ">",
        "38": "?",
        "39": "@",
        "40": "A",
        "41": "B",
        "42": "C",
        "43": "D",
        "44": "E",
        "45": "F",
        "46": "G",
        "47": "H",
        "48": "I",
        "49": "J",
        "50": "K",
        "51": "L",
        "52": "M",
        "53": "N",
        "54": "O",
        "55": "P",
        "56": "Q",
        "57": "R",
        "58": "S",
        "59": "T",
        "60": "U",
        "61": "V",
        "62": "W",
        "63": "X",
        "64": "Y",
        "65": "Z",
        "66": "[",
        "67": "\\",
        "68": "]",
        "69": "^",
        "70": "_",
        "71": "`",
        "72": "a",
        "73": "b",
        "74": "c",
        "75": "d",
        "76": "e",
        "77": "f",
        "78": "g",
        "79": "h",
        "80": "i",
        "81": "j",
        "82": "k",
        "83": "l",
        "84": "m",
        "85": "n",
        "86": "o",
        "87": "p",
        "88": "q",
        "89": "r",
        "90": "s",
        "91": "t",
        "92": "u",
        "93": "v",
        "94": "w",
        "95": "x",
        "96": "y",
        "97": "z",
        "98": "{",
        "99": "|",
        "100": "}",
        "101": "~",
        "102": "\u0080",
        "103": "\u0081",
        "104": "\u0082",
        "105": "\u0083",
        "106": "\u0084",
        "107": "\u0085",
        "108": "\u0086",
        "109": "\u0087",
        "110": "\u0088",
        "111": "\u0089",
        "112": "\u008a",
        "113": "\u008b",
        "114": "\u008c",
        "115": "\u008d",
        "116": "\u008e",
        "117": "\u008f",
        "118": "\u0090",
        "119": "\u0091",
        "120": "\u0092",
        "121": "\u0093",
        "122": "\u0094",
        "123": "\u0095",
        "124": "\u0096",
        "125": "\u0097",
        "126": "\u0098",
        "127": "\u0099",
        "128": "\u009a",
        "129": "\u009b",
        "130": "\u009c",
        "131": "\u009d",
        "132": "\u009e",
        "133": "\u009f",
        "134": "\u00a0",
        "135": "\u00a1",
        "136": "\u00a2",
        "137": "\u00a3",
        "138": "\u00a4",
        "139": "\u00a5",
        "140": "\u00a6",
        "141": "\u00a7",
        "142": "\u00a8",
        "143": "\u00a9",
        "144": "\u00aa",
        "145": "\u00ab",
        "146": "\u00ac",
        "147": "\u00ad",
        "148": "\u00ae",
        "149": "\u00af",
        "150": "\u00b0",
        "151": "\u00b1",
        "152": "\u00b2",
        "153": "\u00b3",
        "154": "\u00b4",
        "155": "\u00b5",
        "156": "\u00b6",
        "157": "\u00b7",
        "158": "\u00b8",
        "159": "\u00b9",
        "160": "\u00ba",
        "161": "\u00bb",
        "162": "\u00bc",
        "163": "\u00bd",
        "164": "\u00be",
        "165": "\u00bf",
        "166": "\u00c2",
        "167": "\u00c3",
        "168": "\u00c5",
        "169": "\u00e2",
        "170": "\u00e3",
        "171": "\u00e4",
        "172": "\u00e5",
        "173": "\u00e6",
        "174": "\u00e7",
        "175": "\u00e8",
        "176": "\u00e9",
        "177": "\u00ef",
        "178": "  ",
        "179": "    ",
        "180": "        ",
        "181": "\n        ",
        "182": "se",
        "183": ", ",
        "184": "in",
        "185": "re",
        "186": "on",
        "187": "te",
        "188": "or",
        "189": "de",
        "190": "st",
        "191": "= ",
        "192": "\n    ",
        "193": "e ",
        "194": "sel",
        "195": "th",
        "196": "self",
        "197": "s ",
        "198": "t ",
        "199": "er",
        "200": "al",
        "201": "en",
        "202": "ti",
        "203": "an",
        "204": "f ",
        "205": "ar",
        "206": "self.",
        "207": "\n            ",
        "208": "le",
        "209": "me",
        "210": " = ",
        "211": "--",
        "212": "ro",
        "213": "at",
        "214": "\n                ",
        "215": ": ",
        "216": "s.",
        "217": "ur",
        "218": "d ",
        "219": "as",
        "220": "fi",
        "221": "tion",
        "222": "ge",
        "223": "):",
        "224": "\"\"",
        "225": "co",
        "226": ")\n",
        "227": "el",
        "228": "mp",
        "229": "t_",
        "230": "ce",
        "231": ")\n        ",
        "232": "##",
        "233": "ing",
        "234": "ue",
        "235": "to",
        "236": "li",
        "237": "ate",
        "238": "ser",
        "239": "# ",
        "240": "ec",
        "241": "lo",
        "242": "ch",
        "243": "the ",
        "244": "ame",
        "245": "', ",
        "246": "\n\n",
        "247": "ri",
        "248": "if ",
        "249": "di",
        "250": "def ",
        "251": "con",
        "252": "for",
        "253": "un",
        "254": "si",
        "255": "('",
        "256": "no",
        "257": "ex",
        "258": "': ",
        "259": "ma",
        "260": "mo",
        "261": "urn",
        "262": "----",
        "263": "ret",
        "264": "ra",
        "265": "ul",
        "266": "pa",
        "267": "name",
        "268": "(self",
        "269": "return",
        "270": "in ",
        "271": "d_",
        "272": "11",
        "273": "y ",
        "274": "):\n        ",
        "275": "ter",
        "276": "is ",
        "277": "\"\"\"",
        "278": "res",
        "279": "ta",
        "280": "id",
        "281": "\n    def ",
        "282": "m ",
        "283": "ty",
        "284": "imp",
        "285": "val",
        "286": "__",
        "287": "pe",
        "288": "ad",
        "289": "ck",
        "290": "return ",
        "291": "ent",
        "292": "impor",
        "293": "up",
        "294": "ver",
        "295": "cl",
        "296": "op",
        "297": "==",
        "298": "il",
        "299": "one",
        "300": "for ",
        "301": "a ",
        "302": "####",
        "303": ",\n                ",
        "304": "import ",
        "305": "to ",
        "306": "ut",
        "307": "tr",
        "308": "la",
        "309": "qu",
        "310": "t(",
        "311": "ap",
        "312": "um",
        "313": "fro",
        "314": "eld",
        "315": "test",
        "316": "is",
        "317": ")\n    ",
        "318": "arg",
        "319": "pro",
        "320": "par",
        "321": ":\n            ",
        "322": "s = ",
        "323": "vi",
        "324": ") ",
        "325": "dat",
        "326": "asser",
        "327": ",\n            ",
        "328": "ing ",
        "329": "ke",
        "330": "Tr",
        "331": "s(",
        "332": "None",
        "333": "\t\t",
        "334": "', '",
        "335": "ol",
        "336": "der",
        "337": "']",
        "338": "['",
        "339": "from ",
        "340": "do",
        "341": "                ",
        "342": "am",
        "343": "True",
        "344": "fa",
        "345": "ob",
        "346": "ct",
        "347": "se ",
        "348": "data",
        "349": "str",
        "350": "del",
        "351": "of ",
        "352": "sion",
        "353": "s_",
        "354": "sh",
        "355": "path",
        "356": "(self, ",
        "357": "t.",
        "358": "jec",
        "359": "bu",
        "360": "not ",
        "361": "clas",
        "362": "len",
        "363": "all",
        "364": "': '",
        "365": "--------",
        "366": "ror",
        "367": "and ",
        "368": "00",
        "369": "\", ",
        "370": ")\n        self.",
        "371": "file",
        "372": "ith",
        "373": "ic",
        "374": ")\n            ",
        "375": "db",
        "376": "sp",
        "377": "sa",
        "378": "s, ",
        "379": "e = ",
        "380": "Re",
        "381": "model",
        "382": ":\n                ",
        "383": "ve",
        "384": "ne",
        "385": "po",
        "386": "ation",
        "387": "):\n    ",
        "388": "self._",
        "389": "ang",
        "390": "(\"",
        "391": "type",
        "392": "get_",
        "393": "so",
        "394": "assert",
        "395": "ab",
        "396": "\n\n    ",
        "397": "he",
        "398": "Fi",
        "399": "ction",
        "400": "per",
        "401": "que",
        "402": "\n# ",
        "403": "lin",
        "404": ")\n\n        ",
        "405": "app",
        "406": "(self):\n        ",
        "407": "== ",
        "408": "or ",
        "409": "\n\n        ",
        "410": "get",
        "411": "key",
        "412": "fo",
        "413": "date",
        "414": "it",
        "415": "ba",
        "416": "value",
        "417": "with",
        "418": "ub",
        "419": "time",
        "420": "re ",
        "421": "t = ",
        "422": "   ",
        "423": "set",
        "424": "), ",
        "425": "and",
        "426": "field",
        "427": "ig",
        "428": "bo",
        "429": "ren",
        "430": "' ",
        "431": "list",
        "432": "sc",
        "433": "ten",
        "434": "stan",
        "435": ")\n\n    def ",
        "436": "====",
        "437": "y_",
        "438": "d.",
        "439": "tex",
        "440": "o.",
        "441": "In",
        "442": "{'",
        "443": "le ",
        "444": "log",
        "445": "[]",
        "446": "ult",
        "447": "cep",
        "448": "objec",
        "449": "form",
        "450": "d(",
        "451": "com",
        "452": "ht",
        "453": "\" ",
        "454": "code",
        "455": ").",
        "456": "########",
        "457": "test_",
        "458": "**",
        "459": "ces",
        "460": " the ",
        "461": "Er",
        "462": "qual",
        "463": "jang",
        "464": "wor",
        "465": "fig",
        "466": "Th",
        "467": "Error",
        "468": ",\n        ",
        "469": "alse",
        "470": "as ",
        "471": "quest",
        "472": ":\n        ",
        "473": "Field",
        "474": "class ",
        "475": "url",
        "476": "djang",
        "477": "db.",
        "478": "\n#",
        "479": "='",
        "480": "user",
        "481": "+ ",
        "482": "1111",
        "483": "),\n            ",
        "484": "out",
        "485": " in ",
        "486": "py",
        "487": "False",
        "488": "\nfrom ",
        "489": ",\n    ",
        "490": "\n\n    def ",
        "491": "col",
        "492": "ff",
        "493": "ho",
        "494": "node",
        "495": "pr",
        "496": "IN",
        "497": "ON",
        "498": "django.",
        "499": "an ",
        "500": "(self.",
        "501": "tri",
        "502": "models.",
        "503": "ou",
        "504": "ag",
        "505": "defa",
        "506": "ER",
        "507": "comp",
        "508": ", '",
        "509": "instan",
        "510": "%s",
        "511": "% ",
        "512": "Equal",
        "513": "cli",
        "514": "est",
        "515": "au",
        "516": "ze",
        "517": "\n        self.",
        "518": "er ",
        "519": "args",
        "520": "cre",
        "521": "sy",
        "522": "che",
        "523": "ini",
        "524": "ment",
        "525": "''",
        "526": "at ",
        "527": "request",
        "528": "//",
        "529": "x_",
        "530": "resp",
        "531": "else",
        "532": ". ",
        "533": "assertEqual",
        "534": "ader",
        "535": "config",
        "536": "et",
        "537": ")\n                ",
        "538": "ce ",
        "539": "ite",
        "540": "pre",
        "541": "cal",
        "542": "'}",
        "543": "Con",
        "544": "p.",
        "545": ")\n\n    ",
        "546": "10",
        "547": "[0",
        "548": "):\n            ",
        "549": "\"\"\"\n        ",
        "550": "be ",
        "551": "ac",
        "552": "es",
        "553": "du",
        "554": "onse",
        "555": "OR",
        "556": "ure",
        "557": "ip",
        "558": "fields.",
        "559": "ist",
        "560": "nam",
        "561": "exp",
        "562": "lic",
        "563": ",\n                                ",
        "564": "')",
        "565": "comm",
        "566": "l ",
        "567": "ble",
        "568": "_in",
        "569": "us",
        "570": "er.",
        "571": " = self.",
        "572": "ase",
        "573": "excep",
        "574": "option",
        "575": "the",
        "576": "            ",
        "577": "star"
    }
}