{
    "chr_to_ids": {
        "U": 0,
        "\u91cd": 1,
        "t": 2,
        "\u5165": 3,
        "]": 4,
        "g": 5,
        ">": 6,
        "4": 7,
        "r": 8,
        "a": 9,
        "}": 10,
        "<": 11,
        "\u5982": 12,
        "B": 13,
        "u": 14,
        "A": 15,
        "F": 16,
        "\u7801": 17,
        "X": 18,
        "v": 19,
        "{": 20,
        "N": 21,
        "\u7528": 22,
        "5": 23,
        "\n": 24,
        "M": 25,
        "O": 26,
        ".": 27,
        "+": 28,
        "I": 29,
        "=": 30,
        "\u6237": 31,
        "\t": 32,
        "G": 33,
        "n": 34,
        "W": 35,
        "p": 36,
        "k": 37,
        "\u5931": 38,
        "K": 39,
        "1": 40,
        "0": 41,
        "Q": 42,
        "L": 43,
        "o": 44,
        "R": 45,
        "J": 46,
        "c": 47,
        "\"": 48,
        "Y": 49,
        "'": 50,
        "/": 51,
        "(": 52,
        "~": 53,
        "`": 54,
        "V": 55,
        "\u679c": 56,
        "S": 57,
        "j": 58,
        "2": 59,
        "$": 60,
        "\u540d": 61,
        "b": 62,
        "-": 63,
        "h": 64,
        "[": 65,
        "\u8d25": 66,
        "f": 67,
        "E": 68,
        "q": 69,
        "%": 70,
        "8": 71,
        "9": 72,
        "Z": 73,
        ";": 74,
        ",": 75,
        "\\": 76,
        "y": 77,
        "i": 78,
        "\u5199": 79,
        "m": 80,
        "x": 81,
        "\u65b0": 82,
        "\u8fde": 83,
        ":": 84,
        "#": 85,
        "^": 86,
        "@": 87,
        "\u5bc6": 88,
        "3": 89,
        "H": 90,
        "T": 91,
        "|": 92,
        "\u00e7": 93,
        ")": 94,
        "7": 95,
        "&": 96,
        "D": 97,
        "e": 98,
        "6": 99,
        "!": 100,
        "w": 101,
        "d": 102,
        "*": 103,
        "C": 104,
        " ": 105,
        "P": 106,
        "\u63a5": 107,
        "?": 108,
        "_": 109,
        "z": 110,
        "l": 111,
        "s": 112,
        "  ": 113,
        "    ": 114,
        "\n    ": 115,
        "se": 116,
        "re": 117,
        "in": 118,
        "on": 119,
        "at": 120,
        "e ": 121,
        "\n        ": 122,
        "er": 123,
        "st": 124,
        ", ": 125,
        "s ": 126,
        "or": 127,
        "ti": 128,
        "th": 129,
        "al": 130,
        "en": 131,
        "= ": 132,
        "de": 133,
        "f ": 134,
        "##": 135,
        "ue": 136,
        "an": 137,
        "sel": 138,
        "self": 139,
        "t ": 140,
        "        ": 141,
        "me": 142,
        "\n\n": 143,
        "\"\"": 144,
        "d ": 145,
        "ro": 146,
        "as": 147,
        "ar": 148,
        "\n      ": 149,
        "ce": 150,
        "self.": 151,
        "ur": 152,
        "dat": 153,
        "le": 154,
        "the ": 155,
        "ty": 156,
        "):": 157,
        "fi": 158,
        "te": 159,
        "####": 160,
        " = ": 161,
        "tion": 162,
        "ing": 163,
        "pp": 164,
        "if ": 165,
        "et": 166,
        "na": 167,
        "\n\n    ": 168,
        "to": 169,
        "ke": 170,
        "s.": 171,
        "data": 172,
        "mp": 173,
        "li": 174,
        "\n            ": 175,
        "val": 176,
        "or ": 177,
        "urn": 178,
        "lo": 179,
        "ret": 180,
        ": ": 181,
        "\"\"\"": 182,
        "ec": 183,
        "()": 184,
        "d_": 185,
        "ul": 186,
        "per": 187,
        "ac": 188,
        "y ": 189,
        "ask": 190,
        "app": 191,
        "name": 192,
        "no": 193,
        "ad": 194,
        "is ": 195,
        "\n                ": 196,
        "un": 197,
        "ent": 198,
        "que": 199,
        "in ": 200,
        "def ": 201,
        "return": 202,
        "co": 203,
        "pro": 204,
        "self._": 205,
        "con": 206,
        "ion": 207,
        "# ": 208,
        "el": 209,
        "a ": 210,
        "\n  ": 211,
        "di": 212,
        "('": 213,
        "to ": 214,
        "ex": 215,
        ")\n    ": 216,
        "tr": 217,
        "pe": 218,
        "t_": 219,
        "key": 220,
        "ser": 221,
        "mo": 222,
        "sp": 223,
        "ter": 224,
        "ror": 225,
        "ch": 226,
        "qu": 227,
        "(self": 228,
        "one": 229,
        "########": 230,
        "return ": 231,
        "ai": 232,
        "se ": 233,
        ":\n      ": 234,
        "time": 235,
        "cal": 236,
        "\n\n  ": 237,
        "task": 238,
        "ing ": 239,
        "ate": 240,
        "for ": 241,
        "of ": 242,
        "id": 243,
        "ore": 244,
        "enti": 245,
        "str": 246,
        "vi": 247,
        "imp": 248,
        "None": 249,
        "ation": 250,
        "not ": 251,
        "\n    \"\"\"": 252,
        "value": 253,
        "rom": 254,
        "Er": 255,
        "store": 256,
        "ort ": 257,
        "um": 258,
        "cl": 259,
        "_p": 260,
        "l ": 261,
        "wi": 262,
        "gs": 263,
        "from": 264,
        "__": 265,
        "get": 266,
        "up": 267,
        "oo": 268,
        "ma": 269,
        "import ": 270,
        "Error": 271,
        "ve": 272,
        "s = ": 273,
        "sh": 274,
        "Tr": 275,
        "am": 276,
        "perty": 277,
        "')": 278,
        "ption": 279,
        "queue": 280,
        "date": 281,
        "datastore": 282,
        "ou": 283,
        "', ": 284,
        "from ": 285,
        "ge": 286,
        "stan": 287,
        "st ": 288,
        "and ": 289,
        "ck": 290,
        "e = ": 291,
        "ery": 292,
        "po": 293,
        "s_": 294,
        "dex": 295,
        "clas": 296,
        "ver": 297,
        "ath": 298,
        "ren": 299,
        "ri": 300,
        "type": 301,
        "(self, ": 302,
        "si": 303,
        "' ": 304,
        "file": 305,
        "_name": 306,
        "res": 307,
        "bu": 308,
        "):\n        ": 309,
        ".\n\n    ": 310,
        ")\n        ": 311,
        "entity": 312,
        ") ": 313,
        "le ": 314,
        "rai": 315,
        "ta": 316,
        "ans": 317,
        "su": 318,
        ":\n        ": 319,
        "er ": 320,
        "quest": 321,
        "instan": 322,
        "tie": 323,
        "mode": 324,
        "                ": 325,
        "mi": 326,
        "jec": 327,
        ")\n\n    ": 328,
        "['": 329,
        "']": 330,
        "ob": 331,
        "action": 332,
        "index": 333,
        "fa": 334,
        "with": 335,
        "',": 336,
        "for": 337,
        "la": 338,
        "Ty": 339,
        "ult": 340,
        "an ": 341,
        "and": 342,
        "Th": 343,
        "vice": 344,
        "re ": 345,
        "raise ": 346,
        "ansaction": 347,
        "):\n    \"\"\"": 348,
        "Task": 349,
        "Type": 350,
        "Re": 351,
        "--": 352,
        "s, ": 353,
        "################": 354,
        "ine": 355,
        "\n\n\n": 356,
        "so": 357,
        "log": 358,
        "cale": 359,
        "ame": 360,
        "spon": 361,
        "be ": 362,
        "me ": 363,
        "In": 364,
        ". ": 365,
        "sho": 366,
        "ct": 367,
        "\n\n  def ": 368,
        "args": 369,
        "property": 370,
        "s(": 371,
        "request": 372,
        "path": 373,
        "Que": 374,
        "mat": 375,
        "sc": 376,
        "ne": 377,
        "== ": 378,
        "sponse": 379,
        ":\n            ": 380,
        "pa": 381,
        "class ": 382,
        "))": 383,
        "Ret": 384,
        "Ar": 385,
        "he": 386,
        "ction": 387,
        "instance": 388,
        "model": 389,
        "star": 390,
        "shoul": 391,
        "Queue": 392,
        "query": 393,
        "lic": 394,
        "ue ": 395,
        "objec": 396,
        "st_": 397,
        "):\n    ": 398,
        "as ": 399,
        "00": 400,
        "exce": 401,
        "True": 402,
        "kin": 403,
        "en ": 404,
        "set": 405,
        "b.": 406,
        "datastore_": 407,
        "App": 408,
        "Pro": 409,
        "Return": 410,
        "py": 411,
        "ER": 412,
        "ment": 413,
        "fig": 414,
        "A ": 415,
        ":\n    ": 416,
        "this ": 417,
        "that": 418,
        "\n  \"\"\"": 419,
        "ces": 420,
        "ce ": 421,
        "use": 422,
        "ist": 423,
        "get_": 424,
        "y_": 425,
        "IN": 426,
        "Ex": 427,
        "kw": 428,
        "ic": 429,
        "sor": 430,
        "d(": 431,
        "\nfrom ": 432,
        "wh": 433,
        "len": 434,
        "(\"": 435,
        ":\n                ": 436,
        "\n    \"\"\"\n    ": 437,
        "\n# ": 438,
        "error": 439,
        "d.": 440,
        "num": 441,
        "s:\n      ": 442,
        " the ": 443,
        "par": 444,
        "der": 445,
        "sa": 446,
        "vali": 447,
        "bo": 448,
        "else": 449,
        "\n\n        ": 450,
        "cur": 451,
        "response": 452,
        "ive": 453,
        "appen": 454,
        "fiel": 455,
        "attr": 456,
        "': ": 457,
        " in ": 458,
        "int": 459,
        " %": 460,
        "Val": 461,
        "object": 462,
        "Fal": 463,
        "asser": 464,
        "fo": 465,
        "time.": 466,
        "ation ": 467,
        "ES": 468,
        "\n          ": 469,
        "the": 470,
        "Args": 471,
        "du": 472,
        "it": 473,
        "arg": 474,
        "queue_": 475,
        "ase": 476,
        "_id": 477,
        "list": 478,
        "ang": 479,
        "spec": 480,
        "of the ": 481,
        "we": 482,
        "Qu": 483,
        "The ": 484,
        "result": 485,
        "EN": 486,
        "Con": 487,
        ").": 488,
        "ly ": 489,
        "apps": 490,
        "[0": 491,
        "sion": 492,
        "Property": 493,
        "do": 494,
        "='": 495,
        "pertie": 496,
        ",\n                ": 497,
        "ra": 498,
        "zoo": 499,
        "cre": 500,
        "rece": 501,
        "ument": 502,
        "ed ": 503,
        "fe": 504,
        "adar": 505,
        "ack": 506,
        "==": 507,
        "service": 508,
        "stat": 509,
        "Get": 510,
        "conn": 511,
        "False": 512,
        "ut": 513,
        "al ": 514,
        "ted ": 515,
        "Co": 516,
        "is": 517,
        ")\n\n": 518,
        "fil": 519,
        "receive": 520,
        "propertie": 521,
        " is ": 522,
        "self.__": 523,
        ",\n            ": 524,
        "lete": 525,
        "[0]": 526,
        "config": 527,
        "ing.": 528,
        "run": 529,
        "ON": 530,
        "logg": 531,
        ", \"": 532,
        "\t\t": 533,
        "ve ": 534,
        "on ": 535,
        "Value": 536,
        "ini": 537,
        "AppS": 538,
        "sy": 539,
        "transaction": 540,
        "wor": 541,
        "radar": 542,
        "should_": 543,
        ")\n      ": 544,
        "Transaction": 545,
        "are ": 546,
        "Query": 547,
        "zk": 548,
        "er_": 549,
        "entitie": 550,
        "es ": 551,
        " to ": 552,
        "AppScale": 553,
        "excep": 554,
        "pre": 555,
        "format": 556,
        "os.": 557,
        "**": 558,
        "t.": 559,
        "op": 560,
        "Mo": 561,
        "   ": 562,
        "+ ": 563,
        "feren": 564,
        "com": 565,
        "defa": 566,
        "iz": 567,
        "mu": 568,
        "TaskQueue": 569,
        "ol": 570,
        "Ke": 571,
        "that ": 572,
        "should_receive": 573,
        "should_receive('": 574,
        "ibu": 575,
        ".\n    \"\"\"\n    ": 576,
        "yam": 577,
        "_pb.": 578,
        "gn": 579,
        "be": 580,
        "value ": 581,
        "numb": 582,
        "ch ": 583,
        "of": 584,
        "except ": 585,
        "gro": 586,
        "ke_": 587,
        "cont": 588,
        "user": 589,
        "t = ": 590,
        "len(": 591,
        "retr": 592,
        "fun": 593,
        "taskqueue_": 594,
        "w ": 595,
        "AS": 596,
        "comp": 597,
        ",\n        ": 598,
        "):\n      ": 599,
        "Args:\n      ": 600,
        "ap": 601,
        "De": 602,
        "ll ": 603,
        "taskqueue_service": 604,
        "Exce": 605,
        "Exception": 606,
        "to_": 607,
        "', '": 608,
        "()\n    ": 609,
        "ifi": 610,
        "mock": 611,
        "')\n    ": 612,
        "Bad": 613,
        "OR": 614,
        "filter": 615,
        "AT": 616,
        "\n#": 617,
        "au": 618,
        "):\n  \"\"\"": 619,
        "s[": 620,
        "**kw": 621,
        "w_": 622,
        "> ": 623,
        "name ": 624,
        "file ": 625,
        "start_": 626,
        "sub": 627,
        "l_": 628,
        "\n    # ": 629,
        "'] = ": 630,
        "time ": 631,
        "read": 632,
        "whi": 633,
        "pr": 634,
        "ed": 635,
        "ep": 636,
        ".should_receive('": 637,
        "try": 638,
        "il": 639,
        "dir": 640,
        "test": 641,
        "ameter": 642,
        "() ": 643,
        "quer": 644,
        "gh": 645,
        "logging.": 646,
        "eta": 647,
        "\nimport ": 648,
        "with ": 649,
        "max": 650,
        "ho": 651,
        "one ": 652,
        ")\n": 653,
        "info": 654,
        "=None": 655,
        "_S": 656,
        "in the ": 657,
        "ble": 658,
        "AN": 659,
        "connec": 660,
        "and_": 661,
        "(self.": 662,
        "tem": 663,
        "En": 664,
        ".\n      ": 665,
        "No": 666,
        "out": 667,
        "d = ": 668,
        "gi": 669,
        "qui": 670,
        "################################": 671,
        "lient": 672,
        "coun": 673,
        "taskqueue_service_pb.": 674,
        "taskqueue_service_pb.TaskQueue": 675,
        "Returns:\n      ": 676,
        "s the ": 677,
        ".\n\n  ": 678,
        "ds": 679,
        "').": 680,
        "appscale": 681,
        "fake_": 682,
        "meth": 683,
        "is_": 684,
        "paren": 685,
        "list ": 686,
        "ace": 687,
        "eper": 688,
        "boo": 689,
        "lock": 690,
        "def _": 691,
        "call": 692,
        "Key": 693,
        "will ": 694,
        "es": 695,
        "ub": 696,
        "model_": 697,
        "RE": 698,
        "exist": 699,
        "IT": 700,
        "back": 701,
        "content": 702,
        "keeper": 703,
        ".\n\n    Args:\n      ": 704,
        "string": 705,
        "Lic": 706,
        "Licen": 707,
        "is not ": 708,
        "\n                    ": 709,
        " (": 710,
        "ange": 711,
        "line": 712,
        ": A ": 713,
        "tex": 714,
        "if not ": 715,
        "If ": 716,
        "ZK": 717,
        "\" %": 718,
        "function": 719,
        "ach": 720,
        "['data": 721,
        "%s": 722,
        "=\"": 723,
        "namesp": 724,
        "must ": 725,
        "_path": 726,
        "by ": 727,
        "om": 728,
        "tt": 729,
        "referen": 730,
        "- ": 731,
        "t__": 732,
        "sen": 733,
        "head": 734,
        "zk.": 735,
        "dire": 736,
        ")\n            ": 737,
        "jang": 738,
        "jango": 739,
        "loc": 740,
        "_P": 741,
        "\n\n\n\n": 742,
        "(self):\n        ": 743,
        "=True": 744,
        "ate ": 745,
        "delete": 746,
        "pc": 747,
        "datetime.": 748,
        "da": 749,
        "mit": 750,
        "ag": 751,
        "inter": 752,
        "eck": 753,
        "it ": 754,
        "out ": 755,
        "ED": 756,
        "': '": 757,
        "Error(": 758,
        "ly": 759,
        "state": 760,
        "all ": 761,
        "format(": 762,
        "item": 763,
        "----": 764,
        "' %": 765,
        "create": 766,
        "**kwargs": 767,
        "client": 768,
        "specifi": 769,
        "errors.": 770,
        "AL": 771,
        "{}": 772,
        "Rai": 773,
        "elif ": 774,
        "ong": 775,
        "order": 776,
        "Raise": 777,
        "gine": 778,
        "fake_zoo": 779,
        "s to ": 780,
        "min": 781,
        "metho": 782,
        "db": 783,
        "base": 784,
        "This ": 785,
        "_T": 786,
        "and_return": 787,
        "os.path": 788,
        "An": 789,
        "hand": 790,
        "Ser": 791,
        "kind": 792,
        "assert": 793,
        " and ": 794,
        "set_": 795,
        "zk.ZK": 796,
        "ail": 797,
        "rea": 798,
        ".appen": 799,
        "Mode": 800,
        "(data": 801,
        "col": 802,
        "index_": 803,
        ", '": 804,
        "ble ": 805,
        "wri": 806,
        "instance ": 807,
        "ew": 808,
        "ude": 809,
        "Lo": 810,
        "request.": 811,
        "cursor": 812,
        "_par": 813,
        "self.assert": 814,
        ".\n    ": 815,
        "ed_": 816,
        "supp": 817,
        "range": 818,
        ",\n    ": 819,
        "should ": 820,
        "fle": 821,
        "\n      '": 822,
        "sign": 823,
        "exception": 824,
        "[]": 825,
        "pas": 826,
        "default": 827,
        "ent ": 828,
        "quire": 829,
        "ValueError": 830,
        "\", ": 831,
        "DE": 832,
        " == ": 833,
        "code": 834,
        "ml": 835,
        "us": 836,
        "age": 837,
        "option": 838,
        "''": 839,
        "query.": 840,
        " import ": 841,
        "typ": 842,
        "!= ": 843,
        "form": 844,
        "key ": 845,
        "und": 846,
        "ID": 847,
        "django": 848,
        "use ": 849,
        "AP": 850,
        "meta": 851,
        "zk.ZKTransaction": 852,
        "queue_name": 853,
        "\n\n\nclass ": 854,
        "instance(": 855,
        "update": 856,
        "aliz": 857,
        "                                ": 858,
        ".\n\n    Returns:\n      ": 859,
        "):\n            ": 860,
        "valid ": 861,
        "0}": 862,
        "isinstance(": 863,
        "lication": 864,
        "siz": 865,
        "E_": 866,
        "secon": 867,
        "AR": 868,
        "vent": 869,
        ".format(": 870,
        "now": 871,
        "] = ": 872,
        "start": 873,
        "te ": 874,
        "s a ": 875,
        "ou ": 876,
        "property ": 877,
        "fre": 878,
        "os.path.": 879,
        "            ": 880,
        "fake_zookeeper": 881,
        "__ini": 882,
        "__init__": 883,
        "header": 884,
        "ig": 885,
        "%s ": 886,
        "' : ": 887,
        ")\n\n  def ": 888,
        "), ": 889,
        "=False": 890,
        "task.": 891,
        "T_": 892,
        "argument": 893,
        "has": 894,
        "s:\n    ": 895,
        "()\n        ": 896,
        "end": 897,
        "ulti": 898,
        "iter": 899,
        "with_": 900,
        "flex": 901,
        "flexmock": 902,
        "direct": 903,
        "UT": 904,
        "MA": 905,
        "int ": 906,
        "scri": 907,
        "ha": 908,
        "ms": 909,
        "ci": 910,
        "ibute": 911,
        "nam": 912,
        "{0}": 913,
        "ron": 914,
        "projec": 915,
        "oth": 916,
        "Option": 917,
        "\n\n    def ": 918,
        "ext": 919,
        "mon": 920,
        "lement": 921,
        "may ": 922,
        "ith": 923,
        "can": 924,
        "Service": 925,
        "prop": 926,
        "wa": 927,
        "LE": 928,
        "jo": 929,
        "amp": 930,
        "dump": 931,
        "flexmock(": 932,
        "ror ": 933,
        "group": 934,
        "Index": 935,
        "ort": 936,
        "IS": 937,
        "s()": 938,
        "====": 939,
        "fir": 940,
        "._": 941,
        "giv": 942,
        "view": 943,
        "\n  def ": 944,
        "app_id": 945,
        "ary": 946,
        "tx": 947,
        "s import ": 948,
        "version": 949,
        "d to ": 950,
        "mic": 951,
        "Enti": 952,
        "bin": 953,
        "1]": 954,
        "work": 955,
        "curren": 956,
        "gate": 957,
        ": The ": 958,
        "NS": 959,
        "St": 960,
        "For": 961,
        "valid": 962,
        "\n\n            ": 963,
        "\n\t\t": 964,
        " for ": 965,
        "field_": 966,
        "swe": 967,
        "sweep": 968,
        "qual": 969,
        "node": 970,
        "query ": 971,
        "usec": 972,
        "ler": 973,
        "add": 974,
        ")\n    if ": 975,
        "off": 976,
        "number ": 977,
        "reference": 978,
        "s/": 979,
        "RO": 980,
        "max_": 981,
        "not in ": 982,
        "exp": 983,
        "end_": 984,
        "Entity": 985,
        "load": 986,
        "comm": 987,
        "son": 988,
        "ING": 989,
        "name, ": 990,
        "exec": 991,
        "ttp": 992,
        "over": 993,
        "have ": 994,
        "quen": 995,
        "retry": 996,
        "\" % ": 997,
        "api": 998,
        "\n    if ": 999,
        "last_": 1000,
        "stor": 1001,
        "list of ": 1002,
        "NS.": 1003,
        "ted": 1004,
        "rie": 1005,
        "check": 1006,
        "metadata": 1007,
        "oog": 1008,
        "UR": 1009,
        ")\n    return ": 1010,
        "License": 1011,
        "al_": 1012,
        "match": 1013,
        "namespace": 1014,
        "task_": 1015,
        "ime": 1016,
        "descri": 1017,
        "\n\n\ndef ": 1018,
        "set ": 1019,
        "and_return(": 1020,
        "entity_": 1021,
        "projection": 1022,
        "(\n        ": 1023,
        "fin": 1024,
        "Error ": 1025,
        "number": 1026,
        "('/": 1027,
        "assert ": 1028,
        "radar.": 1029,
        "(self):\n    \"\"\"": 1030,
        "datastore_errors.": 1031,
        "ION": 1032,
        "text": 1033,
        ":\n                    ": 1034,
        "ue = ": 1035,
        "multi": 1036,
        "response.": 1037,
        "* ": 1038,
        "< ": 1039,
        "_D": 1040,
        ")\n  ": 1041,
        "Time": 1042,
        "cket": 1043,
        "ure": 1044,
        "\" ": 1045,
        "connection": 1046,
        "acces": 1047,
        "1, ": 1048,
        "2.": 1049,
        "skin": 1050,
        "scan": 1051,
        "types.": 1052,
        "urse": 1053,
        "request, ": 1054,
        "yaml": 1055,
        "etch": 1056,
        "to the ": 1057,
        "pass": 1058,
        "in(": 1059,
        "'s ": 1060,
        "open": 1061,
        "ator": 1062,
        "dy": 1063,
        "=E": 1064,
        "s are ": 1065,
        "given ": 1066,
        "(self):\n    ": 1067,
        "None:\n      ": 1068,
        "ssa": 1069,
        "low": 1070,
        "http": 1071,
        "resul": 1072,
        "size": 1073,
        "dic": 1074,
        "Config": 1075,
        "any": 1076,
        "with_args": 1077,
        "model ": 1078,
        "rpc": 1079,
        "any ": 1080,
        "local": 1081,
        "t(": 1082,
        "().": 1083,
        ":\n          ": 1084,
        "ing the ": 1085,
        "LO": 1086,
        "..": 1087,
        "int(": 1088,
        "Ad": 1089,
        "host": 1090,
        "\n\n    # ": 1091,
        "stru": 1092,
        "appscal": 1093,
        "cod": 1094,
        "limit": 1095,
        "ase ": 1096,
        ":\n            raise ": 1097,
        "):\n                ": 1098,
        ")\n\n    def ": 1099,
        "AM": 1100,
        "test_": 1101,
        "0, ": 1102,
        "initi": 1103,
        "QU": 1104,
        "reg": 1105,
        ",\n                                ": 1106,
        "retry_": 1107,
        "goog": 1108,
        "google": 1109,
        "AppScalefile": 1110,
        "_usec": 1111,
        "IM": 1112
    },
    "ids_to_chr": {
        "0": "U",
        "1": "\u91cd",
        "2": "t",
        "3": "\u5165",
        "4": "]",
        "5": "g",
        "6": ">",
        "7": "4",
        "8": "r",
        "9": "a",
        "10": "}",
        "11": "<",
        "12": "\u5982",
        "13": "B",
        "14": "u",
        "15": "A",
        "16": "F",
        "17": "\u7801",
        "18": "X",
        "19": "v",
        "20": "{",
        "21": "N",
        "22": "\u7528",
        "23": "5",
        "24": "\n",
        "25": "M",
        "26": "O",
        "27": ".",
        "28": "+",
        "29": "I",
        "30": "=",
        "31": "\u6237",
        "32": "\t",
        "33": "G",
        "34": "n",
        "35": "W",
        "36": "p",
        "37": "k",
        "38": "\u5931",
        "39": "K",
        "40": "1",
        "41": "0",
        "42": "Q",
        "43": "L",
        "44": "o",
        "45": "R",
        "46": "J",
        "47": "c",
        "48": "\"",
        "49": "Y",
        "50": "'",
        "51": "/",
        "52": "(",
        "53": "~",
        "54": "`",
        "55": "V",
        "56": "\u679c",
        "57": "S",
        "58": "j",
        "59": "2",
        "60": "$",
        "61": "\u540d",
        "62": "b",
        "63": "-",
        "64": "h",
        "65": "[",
        "66": "\u8d25",
        "67": "f",
        "68": "E",
        "69": "q",
        "70": "%",
        "71": "8",
        "72": "9",
        "73": "Z",
        "74": ";",
        "75": ",",
        "76": "\\",
        "77": "y",
        "78": "i",
        "79": "\u5199",
        "80": "m",
        "81": "x",
        "82": "\u65b0",
        "83": "\u8fde",
        "84": ":",
        "85": "#",
        "86": "^",
        "87": "@",
        "88": "\u5bc6",
        "89": "3",
        "90": "H",
        "91": "T",
        "92": "|",
        "93": "\u00e7",
        "94": ")",
        "95": "7",
        "96": "&",
        "97": "D",
        "98": "e",
        "99": "6",
        "100": "!",
        "101": "w",
        "102": "d",
        "103": "*",
        "104": "C",
        "105": " ",
        "106": "P",
        "107": "\u63a5",
        "108": "?",
        "109": "_",
        "110": "z",
        "111": "l",
        "112": "s",
        "113": "  ",
        "114": "    ",
        "115": "\n    ",
        "116": "se",
        "117": "re",
        "118": "in",
        "119": "on",
        "120": "at",
        "121": "e ",
        "122": "\n        ",
        "123": "er",
        "124": "st",
        "125": ", ",
        "126": "s ",
        "127": "or",
        "128": "ti",
        "129": "th",
        "130": "al",
        "131": "en",
        "132": "= ",
        "133": "de",
        "134": "f ",
        "135": "##",
        "136": "ue",
        "137": "an",
        "138": "sel",
        "139": "self",
        "140": "t ",
        "141": "        ",
        "142": "me",
        "143": "\n\n",
        "144": "\"\"",
        "145": "d ",
        "146": "ro",
        "147": "as",
        "148": "ar",
        "149": "\n      ",
        "150": "ce",
        "151": "self.",
        "152": "ur",
        "153": "dat",
        "154": "le",
        "155": "the ",
        "156": "ty",
        "157": "):",
        "158": "fi",
        "159": "te",
        "160": "####",
        "161": " = ",
        "162": "tion",
        "163": "ing",
        "164": "pp",
        "165": "if ",
        "166": "et",
        "167": "na",
        "168": "\n\n    ",
        "169": "to",
        "170": "ke",
        "171": "s.",
        "172": "data",
        "173": "mp",
        "174": "li",
        "175": "\n            ",
        "176": "val",
        "177": "or ",
        "178": "urn",
        "179": "lo",
        "180": "ret",
        "181": ": ",
        "182": "\"\"\"",
        "183": "ec",
        "184": "()",
        "185": "d_",
        "186": "ul",
        "187": "per",
        "188": "ac",
        "189": "y ",
        "190": "ask",
        "191": "app",
        "192": "name",
        "193": "no",
        "194": "ad",
        "195": "is ",
        "196": "\n                ",
        "197": "un",
        "198": "ent",
        "199": "que",
        "200": "in ",
        "201": "def ",
        "202": "return",
        "203": "co",
        "204": "pro",
        "205": "self._",
        "206": "con",
        "207": "ion",
        "208": "# ",
        "209": "el",
        "210": "a ",
        "211": "\n  ",
        "212": "di",
        "213": "('",
        "214": "to ",
        "215": "ex",
        "216": ")\n    ",
        "217": "tr",
        "218": "pe",
        "219": "t_",
        "220": "key",
        "221": "ser",
        "222": "mo",
        "223": "sp",
        "224": "ter",
        "225": "ror",
        "226": "ch",
        "227": "qu",
        "228": "(self",
        "229": "one",
        "230": "########",
        "231": "return ",
        "232": "ai",
        "233": "se ",
        "234": ":\n      ",
        "235": "time",
        "236": "cal",
        "237": "\n\n  ",
        "238": "task",
        "239": "ing ",
        "240": "ate",
        "241": "for ",
        "242": "of ",
        "243": "id",
        "244": "ore",
        "245": "enti",
        "246": "str",
        "247": "vi",
        "248": "imp",
        "249": "None",
        "250": "ation",
        "251": "not ",
        "252": "\n    \"\"\"",
        "253": "value",
        "254": "rom",
        "255": "Er",
        "256": "store",
        "257": "ort ",
        "258": "um",
        "259": "cl",
        "260": "_p",
        "261": "l ",
        "262": "wi",
        "263": "gs",
        "264": "from",
        "265": "__",
        "266": "get",
        "267": "up",
        "268": "oo",
        "269": "ma",
        "270": "import ",
        "271": "Error",
        "272": "ve",
        "273": "s = ",
        "274": "sh",
        "275": "Tr",
        "276": "am",
        "277": "perty",
        "278": "')",
        "279": "ption",
        "280": "queue",
        "281": "date",
        "282": "datastore",
        "283": "ou",
        "284": "', ",
        "285": "from ",
        "286": "ge",
        "287": "stan",
        "288": "st ",
        "289": "and ",
        "290": "ck",
        "291": "e = ",
        "292": "ery",
        "293": "po",
        "294": "s_",
        "295": "dex",
        "296": "clas",
        "297": "ver",
        "298": "ath",
        "299": "ren",
        "300": "ri",
        "301": "type",
        "302": "(self, ",
        "303": "si",
        "304": "' ",
        "305": "file",
        "306": "_name",
        "307": "res",
        "308": "bu",
        "309": "):\n        ",
        "310": ".\n\n    ",
        "311": ")\n        ",
        "312": "entity",
        "313": ") ",
        "314": "le ",
        "315": "rai",
        "316": "ta",
        "317": "ans",
        "318": "su",
        "319": ":\n        ",
        "320": "er ",
        "321": "quest",
        "322": "instan",
        "323": "tie",
        "324": "mode",
        "325": "                ",
        "326": "mi",
        "327": "jec",
        "328": ")\n\n    ",
        "329": "['",
        "330": "']",
        "331": "ob",
        "332": "action",
        "333": "index",
        "334": "fa",
        "335": "with",
        "336": "',",
        "337": "for",
        "338": "la",
        "339": "Ty",
        "340": "ult",
        "341": "an ",
        "342": "and",
        "343": "Th",
        "344": "vice",
        "345": "re ",
        "346": "raise ",
        "347": "ansaction",
        "348": "):\n    \"\"\"",
        "349": "Task",
        "350": "Type",
        "351": "Re",
        "352": "--",
        "353": "s, ",
        "354": "################",
        "355": "ine",
        "356": "\n\n\n",
        "357": "so",
        "358": "log",
        "359": "cale",
        "360": "ame",
        "361": "spon",
        "362": "be ",
        "363": "me ",
        "364": "In",
        "365": ". ",
        "366": "sho",
        "367": "ct",
        "368": "\n\n  def ",
        "369": "args",
        "370": "property",
        "371": "s(",
        "372": "request",
        "373": "path",
        "374": "Que",
        "375": "mat",
        "376": "sc",
        "377": "ne",
        "378": "== ",
        "379": "sponse",
        "380": ":\n            ",
        "381": "pa",
        "382": "class ",
        "383": "))",
        "384": "Ret",
        "385": "Ar",
        "386": "he",
        "387": "ction",
        "388": "instance",
        "389": "model",
        "390": "star",
        "391": "shoul",
        "392": "Queue",
        "393": "query",
        "394": "lic",
        "395": "ue ",
        "396": "objec",
        "397": "st_",
        "398": "):\n    ",
        "399": "as ",
        "400": "00",
        "401": "exce",
        "402": "True",
        "403": "kin",
        "404": "en ",
        "405": "set",
        "406": "b.",
        "407": "datastore_",
        "408": "App",
        "409": "Pro",
        "410": "Return",
        "411": "py",
        "412": "ER",
        "413": "ment",
        "414": "fig",
        "415": "A ",
        "416": ":\n    ",
        "417": "this ",
        "418": "that",
        "419": "\n  \"\"\"",
        "420": "ces",
        "421": "ce ",
        "422": "use",
        "423": "ist",
        "424": "get_",
        "425": "y_",
        "426": "IN",
        "427": "Ex",
        "428": "kw",
        "429": "ic",
        "430": "sor",
        "431": "d(",
        "432": "\nfrom ",
        "433": "wh",
        "434": "len",
        "435": "(\"",
        "436": ":\n                ",
        "437": "\n    \"\"\"\n    ",
        "438": "\n# ",
        "439": "error",
        "440": "d.",
        "441": "num",
        "442": "s:\n      ",
        "443": " the ",
        "444": "par",
        "445": "der",
        "446": "sa",
        "447": "vali",
        "448": "bo",
        "449": "else",
        "450": "\n\n        ",
        "451": "cur",
        "452": "response",
        "453": "ive",
        "454": "appen",
        "455": "fiel",
        "456": "attr",
        "457": "': ",
        "458": " in ",
        "459": "int",
        "460": " %",
        "461": "Val",
        "462": "object",
        "463": "Fal",
        "464": "asser",
        "465": "fo",
        "466": "time.",
        "467": "ation ",
        "468": "ES",
        "469": "\n          ",
        "470": "the",
        "471": "Args",
        "472": "du",
        "473": "it",
        "474": "arg",
        "475": "queue_",
        "476": "ase",
        "477": "_id",
        "478": "list",
        "479": "ang",
        "480": "spec",
        "481": "of the ",
        "482": "we",
        "483": "Qu",
        "484": "The ",
        "485": "result",
        "486": "EN",
        "487": "Con",
        "488": ").",
        "489": "ly ",
        "490": "apps",
        "491": "[0",
        "492": "sion",
        "493": "Property",
        "494": "do",
        "495": "='",
        "496": "pertie",
        "497": ",\n                ",
        "498": "ra",
        "499": "zoo",
        "500": "cre",
        "501": "rece",
        "502": "ument",
        "503": "ed ",
        "504": "fe",
        "505": "adar",
        "506": "ack",
        "507": "==",
        "508": "service",
        "509": "stat",
        "510": "Get",
        "511": "conn",
        "512": "False",
        "513": "ut",
        "514": "al ",
        "515": "ted ",
        "516": "Co",
        "517": "is",
        "518": ")\n\n",
        "519": "fil",
        "520": "receive",
        "521": "propertie",
        "522": " is ",
        "523": "self.__",
        "524": ",\n            ",
        "525": "lete",
        "526": "[0]",
        "527": "config",
        "528": "ing.",
        "529": "run",
        "530": "ON",
        "531": "logg",
        "532": ", \"",
        "533": "\t\t",
        "534": "ve ",
        "535": "on ",
        "536": "Value",
        "537": "ini",
        "538": "AppS",
        "539": "sy",
        "540": "transaction",
        "541": "wor",
        "542": "radar",
        "543": "should_",
        "544": ")\n      ",
        "545": "Transaction",
        "546": "are ",
        "547": "Query",
        "548": "zk",
        "549": "er_",
        "550": "entitie",
        "551": "es ",
        "552": " to ",
        "553": "AppScale",
        "554": "excep",
        "555": "pre",
        "556": "format",
        "557": "os.",
        "558": "**",
        "559": "t.",
        "560": "op",
        "561": "Mo",
        "562": "   ",
        "563": "+ ",
        "564": "feren",
        "565": "com",
        "566": "defa",
        "567": "iz",
        "568": "mu",
        "569": "TaskQueue",
        "570": "ol",
        "571": "Ke",
        "572": "that ",
        "573": "should_receive",
        "574": "should_receive('",
        "575": "ibu",
        "576": ".\n    \"\"\"\n    ",
        "577": "yam",
        "578": "_pb.",
        "579": "gn",
        "580": "be",
        "581": "value ",
        "582": "numb",
        "583": "ch ",
        "584": "of",
        "585": "except ",
        "586": "gro",
        "587": "ke_",
        "588": "cont",
        "589": "user",
        "590": "t = ",
        "591": "len(",
        "592": "retr",
        "593": "fun",
        "594": "taskqueue_",
        "595": "w ",
        "596": "AS",
        "597": "comp",
        "598": ",\n        ",
        "599": "):\n      ",
        "600": "Args:\n      ",
        "601": "ap",
        "602": "De",
        "603": "ll ",
        "604": "taskqueue_service",
        "605": "Exce",
        "606": "Exception",
        "607": "to_",
        "608": "', '",
        "609": "()\n    ",
        "610": "ifi",
        "611": "mock",
        "612": "')\n    ",
        "613": "Bad",
        "614": "OR",
        "615": "filter",
        "616": "AT",
        "617": "\n#",
        "618": "au",
        "619": "):\n  \"\"\"",
        "620": "s[",
        "621": "**kw",
        "622": "w_",
        "623": "> ",
        "624": "name ",
        "625": "file ",
        "626": "start_",
        "627": "sub",
        "628": "l_",
        "629": "\n    # ",
        "630": "'] = ",
        "631": "time ",
        "632": "read",
        "633": "whi",
        "634": "pr",
        "635": "ed",
        "636": "ep",
        "637": ".should_receive('",
        "638": "try",
        "639": "il",
        "640": "dir",
        "641": "test",
        "642": "ameter",
        "643": "() ",
        "644": "quer",
        "645": "gh",
        "646": "logging.",
        "647": "eta",
        "648": "\nimport ",
        "649": "with ",
        "650": "max",
        "651": "ho",
        "652": "one ",
        "653": ")\n",
        "654": "info",
        "655": "=None",
        "656": "_S",
        "657": "in the ",
        "658": "ble",
        "659": "AN",
        "660": "connec",
        "661": "and_",
        "662": "(self.",
        "663": "tem",
        "664": "En",
        "665": ".\n      ",
        "666": "No",
        "667": "out",
        "668": "d = ",
        "669": "gi",
        "670": "qui",
        "671": "################################",
        "672": "lient",
        "673": "coun",
        "674": "taskqueue_service_pb.",
        "675": "taskqueue_service_pb.TaskQueue",
        "676": "Returns:\n      ",
        "677": "s the ",
        "678": ".\n\n  ",
        "679": "ds",
        "680": "').",
        "681": "appscale",
        "682": "fake_",
        "683": "meth",
        "684": "is_",
        "685": "paren",
        "686": "list ",
        "687": "ace",
        "688": "eper",
        "689": "boo",
        "690": "lock",
        "691": "def _",
        "692": "call",
        "693": "Key",
        "694": "will ",
        "695": "es",
        "696": "ub",
        "697": "model_",
        "698": "RE",
        "699": "exist",
        "700": "IT",
        "701": "back",
        "702": "content",
        "703": "keeper",
        "704": ".\n\n    Args:\n      ",
        "705": "string",
        "706": "Lic",
        "707": "Licen",
        "708": "is not ",
        "709": "\n                    ",
        "710": " (",
        "711": "ange",
        "712": "line",
        "713": ": A ",
        "714": "tex",
        "715": "if not ",
        "716": "If ",
        "717": "ZK",
        "718": "\" %",
        "719": "function",
        "720": "ach",
        "721": "['data",
        "722": "%s",
        "723": "=\"",
        "724": "namesp",
        "725": "must ",
        "726": "_path",
        "727": "by ",
        "728": "om",
        "729": "tt",
        "730": "referen",
        "731": "- ",
        "732": "t__",
        "733": "sen",
        "734": "head",
        "735": "zk.",
        "736": "dire",
        "737": ")\n            ",
        "738": "jang",
        "739": "jango",
        "740": "loc",
        "741": "_P",
        "742": "\n\n\n\n",
        "743": "(self):\n        ",
        "744": "=True",
        "745": "ate ",
        "746": "delete",
        "747": "pc",
        "748": "datetime.",
        "749": "da",
        "750": "mit",
        "751": "ag",
        "752": "inter",
        "753": "eck",
        "754": "it ",
        "755": "out ",
        "756": "ED",
        "757": "': '",
        "758": "Error(",
        "759": "ly",
        "760": "state",
        "761": "all ",
        "762": "format(",
        "763": "item",
        "764": "----",
        "765": "' %",
        "766": "create",
        "767": "**kwargs",
        "768": "client",
        "769": "specifi",
        "770": "errors.",
        "771": "AL",
        "772": "{}",
        "773": "Rai",
        "774": "elif ",
        "775": "ong",
        "776": "order",
        "777": "Raise",
        "778": "gine",
        "779": "fake_zoo",
        "780": "s to ",
        "781": "min",
        "782": "metho",
        "783": "db",
        "784": "base",
        "785": "This ",
        "786": "_T",
        "787": "and_return",
        "788": "os.path",
        "789": "An",
        "790": "hand",
        "791": "Ser",
        "792": "kind",
        "793": "assert",
        "794": " and ",
        "795": "set_",
        "796": "zk.ZK",
        "797": "ail",
        "798": "rea",
        "799": ".appen",
        "800": "Mode",
        "801": "(data",
        "802": "col",
        "803": "index_",
        "804": ", '",
        "805": "ble ",
        "806": "wri",
        "807": "instance ",
        "808": "ew",
        "809": "ude",
        "810": "Lo",
        "811": "request.",
        "812": "cursor",
        "813": "_par",
        "814": "self.assert",
        "815": ".\n    ",
        "816": "ed_",
        "817": "supp",
        "818": "range",
        "819": ",\n    ",
        "820": "should ",
        "821": "fle",
        "822": "\n      '",
        "823": "sign",
        "824": "exception",
        "825": "[]",
        "826": "pas",
        "827": "default",
        "828": "ent ",
        "829": "quire",
        "830": "ValueError",
        "831": "\", ",
        "832": "DE",
        "833": " == ",
        "834": "code",
        "835": "ml",
        "836": "us",
        "837": "age",
        "838": "option",
        "839": "''",
        "840": "query.",
        "841": " import ",
        "842": "typ",
        "843": "!= ",
        "844": "form",
        "845": "key ",
        "846": "und",
        "847": "ID",
        "848": "django",
        "849": "use ",
        "850": "AP",
        "851": "meta",
        "852": "zk.ZKTransaction",
        "853": "queue_name",
        "854": "\n\n\nclass ",
        "855": "instance(",
        "856": "update",
        "857": "aliz",
        "858": "                                ",
        "859": ".\n\n    Returns:\n      ",
        "860": "):\n            ",
        "861": "valid ",
        "862": "0}",
        "863": "isinstance(",
        "864": "lication",
        "865": "siz",
        "866": "E_",
        "867": "secon",
        "868": "AR",
        "869": "vent",
        "870": ".format(",
        "871": "now",
        "872": "] = ",
        "873": "start",
        "874": "te ",
        "875": "s a ",
        "876": "ou ",
        "877": "property ",
        "878": "fre",
        "879": "os.path.",
        "880": "            ",
        "881": "fake_zookeeper",
        "882": "__ini",
        "883": "__init__",
        "884": "header",
        "885": "ig",
        "886": "%s ",
        "887": "' : ",
        "888": ")\n\n  def ",
        "889": "), ",
        "890": "=False",
        "891": "task.",
        "892": "T_",
        "893": "argument",
        "894": "has",
        "895": "s:\n    ",
        "896": "()\n        ",
        "897": "end",
        "898": "ulti",
        "899": "iter",
        "900": "with_",
        "901": "flex",
        "902": "flexmock",
        "903": "direct",
        "904": "UT",
        "905": "MA",
        "906": "int ",
        "907": "scri",
        "908": "ha",
        "909": "ms",
        "910": "ci",
        "911": "ibute",
        "912": "nam",
        "913": "{0}",
        "914": "ron",
        "915": "projec",
        "916": "oth",
        "917": "Option",
        "918": "\n\n    def ",
        "919": "ext",
        "920": "mon",
        "921": "lement",
        "922": "may ",
        "923": "ith",
        "924": "can",
        "925": "Service",
        "926": "prop",
        "927": "wa",
        "928": "LE",
        "929": "jo",
        "930": "amp",
        "931": "dump",
        "932": "flexmock(",
        "933": "ror ",
        "934": "group",
        "935": "Index",
        "936": "ort",
        "937": "IS",
        "938": "s()",
        "939": "====",
        "940": "fir",
        "941": "._",
        "942": "giv",
        "943": "view",
        "944": "\n  def ",
        "945": "app_id",
        "946": "ary",
        "947": "tx",
        "948": "s import ",
        "949": "version",
        "950": "d to ",
        "951": "mic",
        "952": "Enti",
        "953": "bin",
        "954": "1]",
        "955": "work",
        "956": "curren",
        "957": "gate",
        "958": ": The ",
        "959": "NS",
        "960": "St",
        "961": "For",
        "962": "valid",
        "963": "\n\n            ",
        "964": "\n\t\t",
        "965": " for ",
        "966": "field_",
        "967": "swe",
        "968": "sweep",
        "969": "qual",
        "970": "node",
        "971": "query ",
        "972": "usec",
        "973": "ler",
        "974": "add",
        "975": ")\n    if ",
        "976": "off",
        "977": "number ",
        "978": "reference",
        "979": "s/",
        "980": "RO",
        "981": "max_",
        "982": "not in ",
        "983": "exp",
        "984": "end_",
        "985": "Entity",
        "986": "load",
        "987": "comm",
        "988": "son",
        "989": "ING",
        "990": "name, ",
        "991": "exec",
        "992": "ttp",
        "993": "over",
        "994": "have ",
        "995": "quen",
        "996": "retry",
        "997": "\" % ",
        "998": "api",
        "999": "\n    if ",
        "1000": "last_",
        "1001": "stor",
        "1002": "list of ",
        "1003": "NS.",
        "1004": "ted",
        "1005": "rie",
        "1006": "check",
        "1007": "metadata",
        "1008": "oog",
        "1009": "UR",
        "1010": ")\n    return ",
        "1011": "License",
        "1012": "al_",
        "1013": "match",
        "1014": "namespace",
        "1015": "task_",
        "1016": "ime",
        "1017": "descri",
        "1018": "\n\n\ndef ",
        "1019": "set ",
        "1020": "and_return(",
        "1021": "entity_",
        "1022": "projection",
        "1023": "(\n        ",
        "1024": "fin",
        "1025": "Error ",
        "1026": "number",
        "1027": "('/",
        "1028": "assert ",
        "1029": "radar.",
        "1030": "(self):\n    \"\"\"",
        "1031": "datastore_errors.",
        "1032": "ION",
        "1033": "text",
        "1034": ":\n                    ",
        "1035": "ue = ",
        "1036": "multi",
        "1037": "response.",
        "1038": "* ",
        "1039": "< ",
        "1040": "_D",
        "1041": ")\n  ",
        "1042": "Time",
        "1043": "cket",
        "1044": "ure",
        "1045": "\" ",
        "1046": "connection",
        "1047": "acces",
        "1048": "1, ",
        "1049": "2.",
        "1050": "skin",
        "1051": "scan",
        "1052": "types.",
        "1053": "urse",
        "1054": "request, ",
        "1055": "yaml",
        "1056": "etch",
        "1057": "to the ",
        "1058": "pass",
        "1059": "in(",
        "1060": "'s ",
        "1061": "open",
        "1062": "ator",
        "1063": "dy",
        "1064": "=E",
        "1065": "s are ",
        "1066": "given ",
        "1067": "(self):\n    ",
        "1068": "None:\n      ",
        "1069": "ssa",
        "1070": "low",
        "1071": "http",
        "1072": "resul",
        "1073": "size",
        "1074": "dic",
        "1075": "Config",
        "1076": "any",
        "1077": "with_args",
        "1078": "model ",
        "1079": "rpc",
        "1080": "any ",
        "1081": "local",
        "1082": "t(",
        "1083": "().",
        "1084": ":\n          ",
        "1085": "ing the ",
        "1086": "LO",
        "1087": "..",
        "1088": "int(",
        "1089": "Ad",
        "1090": "host",
        "1091": "\n\n    # ",
        "1092": "stru",
        "1093": "appscal",
        "1094": "cod",
        "1095": "limit",
        "1096": "ase ",
        "1097": ":\n            raise ",
        "1098": "):\n                ",
        "1099": ")\n\n    def ",
        "1100": "AM",
        "1101": "test_",
        "1102": "0, ",
        "1103": "initi",
        "1104": "QU",
        "1105": "reg",
        "1106": ",\n                                ",
        "1107": "retry_",
        "1108": "goog",
        "1109": "google",
        "1110": "AppScalefile",
        "1111": "_usec",
        "1112": "IM"
    }
}