{
    "chr_to_ids": {
        "<bos>": 0,
        "<eos>": 1,
        "<pad>": 2,
        "<unk>": 3,
        "\t": 4,
        "\n": 5,
        "\f": 6,
        " ": 7,
        "!": 8,
        "\"": 9,
        "#": 10,
        "$": 11,
        "%": 12,
        "&": 13,
        "'": 14,
        "(": 15,
        ")": 16,
        "*": 17,
        "+": 18,
        ",": 19,
        "-": 20,
        ".": 21,
        "/": 22,
        "0": 23,
        "1": 24,
        "2": 25,
        "3": 26,
        "4": 27,
        "5": 28,
        "6": 29,
        "7": 30,
        "8": 31,
        "9": 32,
        ":": 33,
        ";": 34,
        "<": 35,
        "=": 36,
        ">": 37,
        "?": 38,
        "@": 39,
        "A": 40,
        "B": 41,
        "C": 42,
        "D": 43,
        "E": 44,
        "F": 45,
        "G": 46,
        "H": 47,
        "I": 48,
        "J": 49,
        "K": 50,
        "L": 51,
        "M": 52,
        "N": 53,
        "O": 54,
        "P": 55,
        "Q": 56,
        "R": 57,
        "S": 58,
        "T": 59,
        "U": 60,
        "V": 61,
        "W": 62,
        "X": 63,
        "Y": 64,
        "Z": 65,
        "[": 66,
        "\\": 67,
        "]": 68,
        "^": 69,
        "_": 70,
        "`": 71,
        "a": 72,
        "b": 73,
        "c": 74,
        "d": 75,
        "e": 76,
        "f": 77,
        "g": 78,
        "h": 79,
        "i": 80,
        "j": 81,
        "k": 82,
        "l": 83,
        "m": 84,
        "n": 85,
        "o": 86,
        "p": 87,
        "q": 88,
        "r": 89,
        "s": 90,
        "t": 91,
        "u": 92,
        "v": 93,
        "w": 94,
        "x": 95,
        "y": 96,
        "z": 97,
        "{": 98,
        "|": 99,
        "}": 100,
        "~": 101,
        "\u0080": 102,
        "\u0081": 103,
        "\u0082": 104,
        "\u0083": 105,
        "\u0084": 106,
        "\u0085": 107,
        "\u0086": 108,
        "\u0087": 109,
        "\u0088": 110,
        "\u0089": 111,
        "\u008a": 112,
        "\u008b": 113,
        "\u008c": 114,
        "\u008d": 115,
        "\u008e": 116,
        "\u008f": 117,
        "\u0090": 118,
        "\u0091": 119,
        "\u0092": 120,
        "\u0093": 121,
        "\u0094": 122,
        "\u0095": 123,
        "\u0096": 124,
        "\u0097": 125,
        "\u0098": 126,
        "\u0099": 127,
        "\u009a": 128,
        "\u009b": 129,
        "\u009c": 130,
        "\u009d": 131,
        "\u009e": 132,
        "\u009f": 133,
        "\u00a0": 134,
        "\u00a1": 135,
        "\u00a2": 136,
        "\u00a3": 137,
        "\u00a4": 138,
        "\u00a5": 139,
        "\u00a6": 140,
        "\u00a7": 141,
        "\u00a8": 142,
        "\u00a9": 143,
        "\u00aa": 144,
        "\u00ab": 145,
        "\u00ac": 146,
        "\u00ad": 147,
        "\u00ae": 148,
        "\u00af": 149,
        "\u00b0": 150,
        "\u00b1": 151,
        "\u00b2": 152,
        "\u00b3": 153,
        "\u00b4": 154,
        "\u00b5": 155,
        "\u00b6": 156,
        "\u00b7": 157,
        "\u00b8": 158,
        "\u00b9": 159,
        "\u00ba": 160,
        "\u00bb": 161,
        "\u00bc": 162,
        "\u00bd": 163,
        "\u00be": 164,
        "\u00bf": 165,
        "\u00c2": 166,
        "\u00e2": 167,
        "\u00e3": 168,
        "\u00e4": 169,
        "\u00e5": 170,
        "\u00e6": 171,
        "\u00e7": 172,
        "\u00e8": 173,
        "\u00e9": 174,
        "\u00ef": 175,
        "  ": 176,
        "    ": 177,
        "        ": 178,
        "\n        ": 179,
        "se": 180,
        "11": 181,
        ", ": 182,
        "in": 183,
        "re": 184,
        "on": 185,
        "er": 186,
        "at": 187,
        "or": 188,
        "= ": 189,
        "e ": 190,
        "st": 191,
        "\n    ": 192,
        "s ": 193,
        "sel": 194,
        "en": 195,
        "self": 196,
        "de": 197,
        "th": 198,
        "t ": 199,
        "f ": 200,
        "al": 201,
        "ar": 202,
        "an": 203,
        "self.": 204,
        "ion": 205,
        "le": 206,
        ":\n        ": 207,
        "te": 208,
        " = ": 209,
        "1111": 210,
        "me": 211,
        ")\n        ": 212,
        "--": 213,
        "ro": 214,
        "co": 215,
        "d ": 216,
        "fi": 217,
        "ge": 218,
        "t_": 219,
        ")\n": 220,
        "ur": 221,
        "mp": 222,
        "as": 223,
        ": ": 224,
        "\"\"": 225,
        "ser": 226,
        "ct": 227,
        "li": 228,
        "##": 229,
        "to": 230,
        "s.": 231,
        "ad": 232,
        "ce": 233,
        "lo": 234,
        "ing": 235,
        "the ": 236,
        "10": 237,
        "# ": 238,
        "ch": 239,
        "ue": 240,
        "ri": 241,
        "ti": 242,
        "el": 243,
        "\n                ": 244,
        "\n            ": 245,
        "\n\n": 246,
        "for": 247,
        "def ": 248,
        "):\n        ": 249,
        "di": 250,
        "un": 251,
        "ck": 252,
        "ex": 253,
        "ame": 254,
        "con": 255,
        "if ": 256,
        "', ": 257,
        "no": 258,
        "ver": 259,
        "dat": 260,
        "ret": 261,
        "urn": 262,
        "00": 263,
        "is ": 264,
        "----": 265,
        "ap": 266,
        "ut": 267,
        "in ": 268,
        "(self": 269,
        "('": 270,
        "return": 271,
        "ul": 272,
        "imp": 273,
        "mo": 274,
        "pe": 275,
        "y ": 276,
        "ation": 277,
        "ss": 278,
        "id": 279,
        "m ": 280,
        "\n    def ": 281,
        "ent": 282,
        "\"\"\"": 283,
        "ma": 284,
        "ty": 285,
        "op": 286,
        "name": 287,
        "ort ": 288,
        "d_": 289,
        "one": 290,
        "tr": 291,
        ") ": 292,
        "__": 293,
        "####": 294,
        "ig": 295,
        "ab": 296,
        "for ": 297,
        "a ": 298,
        "import ": 299,
        "': ": 300,
        "return ": 301,
        ":\n            ": 302,
        "um": 303,
        "to ": 304,
        "s_": 305,
        "ate": 306,
        "fro": 307,
        "val": 308,
        "test": 309,
        "pro": 310,
        "up": 311,
        "cl": 312,
        "arg": 313,
        "il": 314,
        "par": 315,
        "res": 316,
        "do": 317,
        "ter": 318,
        "s = ": 319,
        "str": 320,
        "asser": 321,
        "None": 322,
        ")\n    ": 323,
        ",\n                ": 324,
        "']": 325,
        "['": 326,
        "ing ": 327,
        "ne": 328,
        "from ": 329,
        "', '": 330,
        "am": 331,
        "se ": 332,
        "                ": 333,
        "s(": 334,
        "ror": 335,
        "pat": 336,
        "):": 337,
        "it": 338,
        "file": 339,
        "11111111": 340,
        "pt": 341,
        "ag": 342,
        "qu": 343,
        "of ": 344,
        "get_": 345,
        "ction": 346,
        "sh": 347,
        "ic": 348,
        "bj": 349,
        "all": 350,
        "get": 351,
        "e = ": 352,
        "Tr": 353,
        "sc": 354,
        "ve": 355,
        "fo": 356,
        "len": 357,
        "(self, ": 358,
        "1110": 359,
        "clas": 360,
        "he": 361,
        "==": 362,
        "not ": 363,
        "vi": 364,
        "ith": 365,
        "110": 366,
        "and ": 367,
        "True": 368,
        "er ": 369,
        "ke": 370,
        "sion": 371,
        "d(": 372,
        "so": 373,
        "bu": 374,
        "''": 375,
        "set": 376,
        "path": 377,
        ")\n        self.": 378,
        "po": 379,
        "s, ": 380,
        "data": 381,
        "--------": 382,
        "lin": 383,
        "fa": 384,
        "app": 385,
        "time": 386,
        "assert": 387,
        "\", ": 388,
        "bje": 389,
        "et": 390,
        ")\n            ": 391,
        "ra": 392,
        "\n\n    ": 393,
        "and": 394,
        "== ": 395,
        "si": 396,
        "(self):\n        ": 397,
        ":\n                ": 398,
        "com": 399,
        "ase": 400,
        "ht": 401,
        "out": 402,
        "ff": 403,
        "\n# ": 404,
        "ack": 405,
        "(\"": 406,
        "\t\t": 407,
        "bo": 408,
        "):\n    ": 409,
        ",\n            ": 410,
        "form": 411,
        "test_": 412,
        ",\n    ": 413,
        "re ": 414,
        "with": 415,
        "   ": 416,
        "' ": 417,
        "\n\n        ": 418,
        "y_": 419,
        "log": 420,
        "or ": 421,
        "list": 422,
        "url": 423,
        "che": 424,
        "value": 425,
        "ader": 426,
        "t = ": 427,
        "ren": 428,
        "[\"": 429,
        "\"]": 430,
        "Er": 431,
        "version": 432,
        "age": 433,
        "self._": 434,
        "Error": 435,
        "eld": 436,
        "\" ": 437,
        ")\n\n        ": 438,
        "le ": 439,
        "que": 440,
        "sp": 441,
        "code": 442,
        "su": 443,
        "del": 444,
        "int": 445,
        "########": 446,
        "In": 447,
        "db": 448,
        ")\n\n    def ": 449,
        "add": 450,
        "per": 451,
        "py": 452,
        "Th": 453,
        ").": 454,
        "fig": 455,
        "as ": 456,
        ")\n\n": 457,
        "obje": 458,
        "rec": 459,
        "date": 460,
        "': '": 461,
        "ON": 462,
        "% ": 463,
        ". ": 464,
        "go": 465,
        "ult": 466,
        "tex": 467,
        "class ": 468,
        "ou": 469,
        "\nfrom ": 470,
        "\n#": 471,
        "')": 472,
        "type": 473,
        "scri": 474,
        "pr": 475,
        "cli": 476,
        "%s": 477,
        "num": 478,
        "os.": 479,
        "er.": 480,
        "an ": 481,
        "l ": 482,
        "Re": 483,
        "TH": 484,
        "dir": 485,
        "\n\n    def ": 486,
        "quest": 487,
        "+ ": 488,
        "S_": 489,
        "igr": 490,
        "(self.": 491,
        "            ": 492,
        "ip": 493,
        " in ": 494,
        "alse": 495,
        "au": 496,
        "user": 497,
        "ol": 498,
        "0x": 499,
        "key": 500,
        "qual": 501,
        "wor": 502,
        "mi": 503,
        "=\"": 504,
        "( ": 505,
        "ption": 506,
        "server": 507,
        "False": 508,
        "//": 509,
        "ER": 510,
        "read": 511,
        "='": 512,
        "ho": 513,
        "d.": 514,
        "la": 515,
        "cont": 516,
        "IN": 517,
        "tp": 518,
        ",\n        ": 519,
        "sa": 520,
        "with ": 521,
        "comm": 522,
        "), ": 523,
        "stan": 524,
        "model": 525,
        "[0": 526,
        "pu": 527,
        "ec": 528,
        "config": 529,
        "ist": 530,
        "ze": 531,
        "::": 532,
        "est": 533,
        "x_": 534,
        "lic": 535,
        "igration": 536,
        "at ": 537,
        "wri": 538,
        "in(": 539,
        "header": 540,
        "line": 541,
        "Con": 542,
        "comp": 543,
        "No": 544,
        "ort": 545,
        "info": 546,
        "\"\"\"\n        ": 547,
        "opt": 548,
        "field": 549,
        "else": 550,
        "Fi": 551,
        ")\n        self.assert": 552,
        "request": 553,
        "coun": 554,
        "pec": 555,
        "OR": 556,
        "ini": 557,
        "ac": 558,
        "exce": 559,
        "_id": 560,
        "der": 561,
        "**": 562,
        ")\n\n    ": 563,
        "en ": 564,
        "> ": 565,
        "the": 566,
        "pre": 567,
        "\n        self.": 568,
        "error": 569,
        "resp": 570,
        "ype": 571,
        "cre": 572,
        "s=": 573,
        "{'": 574,
        "200": 575,
        "ctor": 576,
        "be ": 577,
        "jo": 578,
        "text": 579,
        "):\n            ": 580,
        ", '": 581,
        "rai": 582,
        "====": 583,
        "is": 584,
        "wn": 585,
        "this ": 586,
        "able": 587,
        "ite": 588,
        "migration": 589,
        "TI": 590,
        "[0]": 591,
        "doc": 592,
        "ed": 593,
        "string": 594,
        "wh": 595,
        "[]": 596,
        "E_": 597,
        "ssion": 598,
        "al ": 599,
        "Test": 600,
        "- ": 601,
        "111110": 602,
        "http": 603,
        "object": 604,
        "Equal": 605,
        "\\n": 606,
        "EN": 607,
        "ie": 608,
        "ces": 609,
        "ken": 610,
        "()\n        ": 611,
        "on ": 612,
        "path.": 613,
        "stat": 614,
        " = self.": 615,
        "du": 616,
        "11110": 617,
        "\n\n\n": 618,
        "instan": 619,
        "nam": 620,
        "sig": 621,
        "numb": 622,
        "S ": 623,
        "meth": 624,
        "script": 625,
        "node": 626,
        "w_": 627,
        ": \"": 628,
        "cod": 629,
        "y.": 630,
        "m_": 631,
        "put": 632,
        "lock": 633,
        "Co": 634,
        "call": 635,
        "mess": 636,
        "tri": 637,
        "cal": 638,
        "02": 639,
        "mat": 640,
        "sen": 641,
        "_S": 642,
        "f_": 643,
        "til": 644,
        "onse": 645,
        "----------------": 646,
        "ce ": 647,
        "jan": 648,
        ",\n                                ": 649,
        ", \"": 650,
        "be": 651,
        "sub": 652,
        "os.path.": 653,
        "jango": 654,
        "sy": 655,
        "dex": 656,
        "Pro": 657,
        "ure": 658,
        "ment": 659,
        "defa": 660,
        "ali": 661,
        "sg": 662,
        "14": 663,
        "://": 664,
        "s[": 665,
        "mple": 666,
        "))\n        ": 667,
        "..": 668,
        "min": 669,
        "format": 670,
        "col": 671,
        "appen": 672,
        "ta": 673,
        "parse": 674,
        "len(": 675,
        "parser": 676,
        "AR": 677,
        "token": 678,
        "ran": 679,
        "prin": 680,
        "son": 681,
        "al_": 682,
        "metho": 683,
        "option": 684,
        "Lic": 685,
        "Licen": 686,
        "Type": 687,
        "ch ": 688,
        "raise ": 689,
        "top": 690,
        "``": 691,
        "try": 692,
        "temp": 693,
        "E ": 694,
        "by": 695,
        "Ex": 696,
        "django": 697,
        "cur": 698,
        "er(": 699,
        "of the ": 700,
        "\n  ": 701,
        "ation ": 702,
        "st ": 703,
        "ress": 704,
        "star": 705,
        "p.": 706,
        "fun": 707,
        "0, ": 708,
        "main": 709,
        "to_": 710,
        "util": 711,
        "ok": 712,
        "\nimport ": 713,
        "und": 714,
        "The ": 715,
        "_C": 716,
        "are ": 717,
        "w ": 718,
        "tra": 719,
        "end": 720,
        "join(": 721,
        "script[\"": 722,
        "'''": 723,
        "lu": 724,
        "\"\"\"\n    ": 725,
        "pt ": 726,
        "f.": 727,
        "ve ": 728,
        "m.": 729,
        "sq": 730,
        "typ": 731,
        "ent ": 732,
        "sho": 733,
        "response": 734,
        "set_": 735,
        "=None": 736,
        "that ": 737,
        "has": 738,
        "er_": 739,
        "1]": 740,
        "\", \"": 741,
        "\n                    ": 742,
        "dict": 743,
        ".0": 744,
        "ev": 745,
        " import ": 746,
        "100": 747,
        "result": 748,
        "cr": 749,
        "django.": 750,
        "exp": 751,
        "),\n            ": 752,
        "################": 753,
        "is_": 754,
        "conne": 755,
        "mock": 756,
        "l_": 757,
        "12": 758,
        "lab": 759,
        "AN": 760,
        "use": 761,
        "ed ": 762,
        "2009": 763,
        "115": 764,
        "cess": 765,
        "ass": 766,
        "ted": 767,
        "us": 768,
        "WI": 769,
        "200902": 770,
        "20090214": 771,
        "20090214115": 772,
        "fin": 773,
        "ted ": 774,
        ")\n\n\n": 775,
        "write": 776,
        "Equal(": 777,
        "index": 778,
        "instance": 779,
        "De": 780,
        "ly ": 781,
        "stri": 782,
        "it ": 783,
        "St": 784,
        "create": 785,
        "LI": 786,
        "json": 787,
        "EC": 788,
        "ent_": 789,
        "args": 790,
        "label": 791,
        "perty": 792,
        "by ": 793,
        "on.": 794,
        "append(": 795,
        ".\n        ": 796,
        "',": 797,
        " is ": 798,
        "\")": 799,
        "ument": 800,
        "db.": 801,
        "low": 802,
        "auth": 803,
        "le_": 804,
        "st_": 805,
        "ext": 806,
        "self.assert": 807,
        "1100": 808,
        "WITH": 809,
        "count": 810,
        ":\n    ": 811,
        "back": 812,
        "</": 813,
        "base": 814,
        "lat": 815,
        " == ": 816,
        "ire": 817,
        "11111110": 818,
        "ST": 819,
        "Se": 820,
        "are": 821,
        "ay": 822,
        "file ": 823,
        "block": 824,
        "check": 825,
        "Mo": 826,
        "t__": 827,
        "sup": 828,
        "except ": 829,
        "andl": 830,
        "if not ": 831,
        "eli": 832,
        "recor": 833,
        " = '": 834,
        "models.": 835,
        "late": 836,
        "elif ": 837,
        "()": 838,
        "fe": 839,
        ")\n\n    def test_": 840,
        "kw": 841,
        "message": 842,
        "exec": 843,
        "print ": 844,
        "filen": 845,
        "' % ": 846,
        "TL": 847,
        "fir": 848,
        ")\n\t\t": 849,
        "This ": 850,
        "mar": 851,
        ".\n    ": 852,
        "ree": 853,
        "logg": 854,
        "gh": 855,
        "load": 856,
        "vali": 857,
        "pass": 858,
        "1111110": 859,
        "type ": 860,
        "default": 861,
        "run": 862,
        "spec": 863,
        "RE": 864,
        "20": 865,
        "ive": 866,
        "=True": 867,
        "http://": 868,
        "cor": 869,
        "lev": 870,
        "vice": 871,
        "size": 872,
        "argv": 873,
        "ct ": 874,
        "if self.": 875,
        "s/": 876,
        "s import ": 877,
        "fic": 878,
        "g.": 879,
        "msg": 880,
        "gro": 881,
        "age ": 882,
        "gth": 883,
        "ca": 884,
        "work": 885,
        "byte": 886,
        "tw": 887,
        "dire": 888,
        "port": 889,
        "down": 890,
        "ww": 891,
        "Lo": 892,
        "'}": 893,
        "curren": 894,
        "os.path.join(": 895,
        " (": 896,
        "sock": 897,
        ")\n                ": 898,
        "\",\n    ": 899,
        "d, ": 900,
        "tar": 901,
        "25": 902,
        "ting": 903,
        "init__": 904,
        "A_": 905,
        "_name": 906,
        "Ch": 907,
        "\" % ": 908,
        ":\n                    ": 909,
        "_arg": 910,
        "topic": 911,
        "tit": 912,
        "requ": 913,
        "__init__": 914,
        "DE": 915,
        "one ": 916,
        "char": 917,
        "pack": 918,
        "item": 919,
        "valu": 920,
        "s the ": 921,
        "le(": 922,
        "we": 923,
        "open": 924,
        "\": ": 925,
        "\n\t": 926,
        "Ad": 927,
        "gin": 928,
        "attr": 929,
        "     ": 930,
        "{}": 931,
        "api": 932,
        "HA": 933,
        ",\n    '": 934,
        "assert_": 935,
        "info.": 936,
        "env": 937,
        "ain": 938,
        "act": 939,
        "c.": 940,
        "\n\nfrom ": 941,
        "mail": 942,
        "lan": 943,
        "(0x": 944,
        "License": 945,
        "bod": 946,
        "tx": 947,
        "): \"": 948,
        "ill ": 949,
        "1, ": 950,
        "yp": 951,
        "\"] ": 952,
        "): \"TL": 953,
        "): \"TLS_": 954,
        "\",\n    (0x": 955,
        "LO": 956,
        "c_": 957,
        "_cli": 958,
        "d = ": 959,
        "ou ": 960,
        "proces": 961,
        "clo": 962,
        "')\n        ": 963,
        "SE": 964,
        "Field": 965,
        "sign": 966,
        "s to ": 967,
        "t.": 968,
        ",\n                        ": 969,
        "address": 970,
        "T ": 971,
        "am ": 972,
        "iv": 973,
        "length": 974,
        "DI": 975,
        "FI": 976,
        "Un": 977,
        "* ": 978,
        "o ": 979,
        "w.": 980,
        "ai": 981,
        "vie": 982,
        ")\n\n\t\t": 983,
        "update": 984,
        "else:\n            ": 985,
        "dn": 986,
        "level": 987,
        "function": 988,
        "shoul": 989,
        "If ": 990,
        "AT": 991,
        "reg": 992,
        "bject": 993,
        "aff": 994,
        "T_": 995,
        "oth": 996,
        "ate ": 997,
        "client": 998,
        "Str": 999,
        "filename": 1000,
        "sche": 1001,
        "from_": 1002,
        " for ": 1003,
        "r_": 1004,
        "lag": 1005,
        "$$": 1006,
        "name = ": 1007,
        "fix": 1008,
        "ml": 1009,
        "ME": 1010,
        "will ": 1011,
        "TION": 1012,
        "tern": 1013,
        "arch": 1014,
        "() ": 1015,
        " = \"": 1016,
        "is not ": 1017,
        "name ": 1018,
        "Par": 1019,
        "fil": 1020,
        "OR ": 1021,
        "var": 1022,
        ".com": 1023,
        "En": 1024,
        "OF": 1025,
        "print": 1026,
        "bin": 1027,
        "remo": 1028,
        "\n        if ": 1029,
        "assert ": 1030,
        "stru": 1031,
        "ad ": 1032,
        "_SHA": 1033,
        "\n\t\t": 1034,
        "\n\n\nclass ": 1035,
        "in the ": 1036,
        "out ": 1037,
        "expec": 1038,
        "put_": 1039,
        "ute": 1040,
        "hel": 1041,
        "========": 1042,
        "\\\\": 1043,
        "ste": 1044,
        "datab": 1045,
        "fields.": 1046,
        "mit": 1047,
        "1.": 1048,
        ">> ": 1049,
        "bute": 1050,
        "name, ": 1051,
        ")\n        self.assertEqual(": 1052,
        "common.": 1053,
        "gen": 1054,
        "speci": 1055,
        "u'": 1056,
        "Gaff": 1057,
        "=False": 1058,
        "our": 1059,
        "64": 1060,
        "man": 1061,
        "word": 1062,
        "\n        # ": 1063,
        "\",": 1064,
        "geo": 1065,
        "property": 1066,
        "ot": 1067,
        "util.": 1068,
        "spli": 1069,
        "ing.": 1070,
        "s']": 1071,
        "cy": 1072,
        "datetime": 1073,
        "s\n    ": 1074,
        "flo": 1075,
        " + ": 1076,
        "1010": 1077,
        "gr": 1078,
        "=None, ": 1079,
        "off": 1080,
        "D_": 1081,
        "  # ": 1082,
        "Node": 1083,
        "range": 1084,
        "class": 1085,
        "director": 1086,
        " of ": 1087,
        "lib": 1088,
        "fr": 1089,
        "[], ": 1090,
        "ity": 1091,
        "dw": 1092,
        "\"][\"": 1093,
        "AP": 1094,
        " and ": 1095,
        "': ('": 1096,
        "sto": 1097,
        "param ": 1098,
        "tribute": 1099,
        "require": 1100,
        "):\n    \"\"\"": 1101,
        "Object": 1102,
        "can ": 1103,
        "::::": 1104,
        "re.": 1105,
        "IP": 1106,
        "nu": 1107,
        "set ": 1108,
        "sr": 1109,
        "lay": 1110,
        "clu": 1111,
        "af": 1112,
        "Ret": 1113,
        "method": 1114,
        " to ": 1115,
        "stre": 1116,
        "UR": 1117,
        "group": 1118,
        "!= ": 1119,
        "_de": 1120,
        "ask": 1121,
        "able ": 1122,
        "chan": 1123,
        "_version": 1124,
        "obj": 1125,
        "script[\"add": 1126,
        "Ser": 1127,
        "(\n            ": 1128,
        "session": 1129,
        "pi": 1130,
        "connection": 1131,
        "flag": 1132,
        "host": 1133,
        "stop": 1134,
        "we ": 1135,
        "Exce": 1136,
        "_numb": 1137,
        "_in": 1138,
        "y(": 1139,
        "ll": 1140,
        ", self.": 1141,
        "WITH_": 1142,
        "start": 1143,
        "applic": 1144,
        ".get_": 1145,
        "\n\n# ": 1146,
        "ample": 1147,
        "close": 1148,
        "ha": 1149,
        "mission": 1150,
        "stack": 1151,
        "add_": 1152,
        "copy": 1153,
        "Me": 1154,
        "IS": 1155,
        "orm": 1156,
        ">>> ": 1157,
        "title": 1158,
        "buil": 1159,
        "Exception": 1160,
        "django.db.": 1161,
        "ci": 1162,
        "+= ": 1163,
        "Return": 1164,
        "':": 1165,
        "exception": 1166,
        "action": 1167,
        "\",\"": 1168,
        "256": 1169,
        ":param ": 1170,
        "sour": 1171,
        "):\n                ": 1172,
        "mb": 1173,
        "seri": 1174,
        "kwargs": 1175,
        "me ": 1176,
        "er the ": 1177,
        "pri": 1178,
        "String": 1179,
        "MP": 1180,
        "True(": 1181,
        "sk": 1182,
        "ect": 1183,
        "django.db.models.": 1184,
        "pa": 1185,
        "cm": 1186,
        "state": 1187,
        "database": 1188,
        "led": 1189,
        "use ": 1190,
        ")\n        return ": 1191,
        "To": 1192,
        "all ": 1193,
        "', [], ": 1194,
        "dir, \"": 1195,
        "log_": 1196,
        "enti": 1197,
        "modu": 1198,
        "'.": 1199,
        "zone": 1200,
        "django.db.models.fields.": 1201,
        "loc": 1202,
        "p_": 1203,
        "box_": 1204,
        "]\n        ": 1205,
        "; ": 1206,
        "))": 1207,
        "ron": 1208,
        "Po": 1209,
        "tran": 1210,
        "event": 1211,
        "{\"": 1212,
        "', [], {'": 1213,
        "111111110": 1214,
        "ED": 1215,
        "dic": 1216,
        "alize": 1217,
        "sample": 1218,
        "lete": 1219,
        "ke ": 1220,
        "ID": 1221,
        "s = [": 1222,
        "0.": 1223,
        "__init__(self, ": 1224,
        "': ('django.db.models.fields.": 1225,
        "email": 1226,
        "RO": 1227,
        "max_": 1228,
        "initi": 1229,
        "local": 1230,
        "mul": 1231,
        "siz": 1232,
        "\": \"": 1233,
        "statu": 1234,
        "A ": 1235,
        "map": 1236,
        "DH": 1237,
        ",\n                    ": 1238,
        "quer": 1239,
        "inter": 1240,
        ".get": 1241,
        "for the ": 1242,
        "exten": 1243,
        "hash": 1244,
        "] = ": 1245,
        "b_": 1246,
        "x.": 1247,
        "coding": 1248,
        "Gad": 1249,
        "schema": 1250,
        "setting": 1251,
        "ce_": 1252,
        "cybox_": 1253,
        "Gadget": 1254,
        "cybox_common.": 1255,
        "ref": 1256,
        "te ": 1257,
        "d to ": 1258,
        "return_": 1259,
        "new_": 1260,
        "GE": 1261,
        "process": 1262,
        "all_": 1263,
        "ata": 1264,
        "s'": 1265,
        "Name": 1266,
        "bug": 1267,
        "s and ": 1268,
        "[1]": 1269,
        "ash": 1270,
        "spa": 1271,
        "SS": 1272,
        "righ": 1273,
        " '": 1274,
        "of": 1275,
        ".\n\n    ": 1276,
        "DN": 1277,
        "instance(": 1278,
        "Char": 1279,
        "de ": 1280,
        "param": 1281,
        "sql_": 1282,
        "Type,\n    '": 1283,
        "):\n        \"\"\"": 1284,
        "new": 1285,
        "AL": 1286,
        "struct": 1287,
        "example": 1288,
        "plu": 1289,
        "\n    # ": 1290,
        "context": 1291,
        "cryp": 1292,
        "s\n        ": 1293,
        "str(": 1294,
        "')\n    ": 1295,
        "Field', [], {'": 1296,
        "war": 1297,
        "ful": 1298,
        "render": 1299,
        "Y ": 1300,
        "ted_": 1301,
        "view": 1302,
        "whi": 1303,
        "\")\n        ": 1304,
        "stream": 1305,
        "line ": 1306,
        "),\n            '": 1307,
        "point": 1308,
        "target": 1309,
        " 0": 1310,
        "inp": 1311,
        "()\n    ": 1312,
        "object ": 1313,
        "df": 1314,
        "] ": 1315,
        "conver": 1316,
        ",\n                            ": 1317,
        "data ": 1318,
        "isinstance(": 1319,
        "split": 1320,
        "template": 1321,
        "s are ": 1322,
        "av": 1323,
        "nump": 1324,
        "ima": 1325,
        "None:\n            ": 1326,
        "ator": 1327,
        "ob": 1328,
        "ust ": 1329,
        "under the ": 1330,
        "limit": 1331,
        "simp": 1332,
        " the ": 1333,
        "distri": 1334,
        "record": 1335,
        "\":": 1336,
        "ep": 1337,
        "BC": 1338,
        "indo": 1339,
        ",\n            '": 1340,
        "2.": 1341,
        "output": 1342,
        "ed_": 1343,
        "can": 1344,
        "s in ": 1345,
        "sum": 1346,
        "wid": 1347,
        "': cybox_common.": 1348,
        "gu": 1349,
        "value ": 1350,
        "lean": 1351,
        "Val": 1352,
        "float": 1353,
        "().": 1354,
        "\n                        ": 1355,
        "check_": 1356,
        "ult ": 1357,
        "ight": 1358,
        "1 ": 1359,
        "CON": 1360,
        "you ": 1361,
        "EX": 1362,
        "License ": 1363,
        "Config": 1364,
        "ir": 1365,
        "patch": 1366,
        "io": 1367,
        "AS": 1368,
        "main.": 1369,
        "get ": 1370,
        "'\n        ": 1371,
        "Base": 1372,
        "lob": 1373,
        "orig": 1374,
        "32": 1375,
        ")\n        self.assertTrue(": 1376,
        "pyth": 1377,
        "ition": 1378,
        "WAR": 1379,
        ".append(": 1380,
        "s)": 1381,
        "crypto": 1382,
        "--------------------------------": 1383,
        "mon": 1384,
        "which ": 1385,
        "return self.": 1386,
        " = Gaff": 1387,
        "List": 1388,
        "ct_": 1389,
        "Value": 1390,
        "validat": 1391,
        "np.": 1392,
        "rap": 1393,
        "right ": 1394,
        "int(": 1395,
        "s.append(": 1396,
        "\n\ndef ": 1397,
        "prox": 1398,
        "req": 1399,
        "code ": 1400,
        "Do": 1401,
        "Ma": 1402,
        "Ti": 1403,
        "ten": 1404,
        "es ": 1405,
        "max": 1406,
        ")\n        if ": 1407,
        ") == ": 1408,
        "': 'True": 1409,
        "html": 1410,
        "'t ": 1411,
        "%s ": 1412,
        "over": 1413,
        "sys.": 1414,
        "\n#\n# ": 1415,
        "-8": 1416,
        "File": 1417,
        "Au": 1418,
        "uni": 1419,
        "NO": 1420,
        "None ": 1421,
        "service": 1422,
        "id ": 1423,
        "TR": 1424,
        "f = ": 1425,
        "ution": 1426,
        "\n        \"\"\"\n        ": 1427,
        "format(": 1428,
        "body": 1429,
        "equal": 1430,
        "101110": 1431,
        "):\n    \"\"\"\n    ": 1432,
        "should ": 1433,
        "arra": 1434,
        "p>": 1435,
        "Gadget( ": 1436,
        "mark": 1437,
        "Up": 1438,
        "OU": 1439,
        "Ke": 1440,
        "ile ": 1441,
        "TestC": 1442,
        "file_": 1443,
        "111100": 1444,
        "ase ": 1445,
        "hand": 1446,
        "match": 1447,
        "after": 1448,
        "User": 1449,
        "\n\n\ndef ": 1450,
        "AU": 1451,
        "None, ": 1452,
        "rea": 1453,
        "supp": 1454,
        "\n                                ": 1455,
        "OC": 1456,
        "ing_": 1457,
        "link": 1458,
        "\n\nimport ": 1459,
        "module": 1460,
        "content": 1461,
        "r'": 1462,
        ")\n\n        # ": 1463,
        "parse_": 1464,
        "execute": 1465,
        "'}),\n            '": 1466,
        "_header": 1467,
        "entr": 1468,
        "create_": 1469,
        "\n            if ": 1470,
        "page": 1471,
        "chil": 1472,
        "confir": 1473,
        "\",\n    (0xC": 1474,
        "author": 1475,
        "teg": 1476,
        "url(": 1477,
        "\"] ) ": 1478,
        "SA_": 1479,
        "regist": 1480,
        "remove": 1481,
        "permission": 1482,
        "im": 1483,
        "` ": 1484,
        "proj": 1485,
        ")\n\n    @": 1486,
        "(self):\n        \"\"\"": 1487,
        "thread": 1488,
        "eld ": 1489,
        "handl": 1490,
        "es": 1491,
        "sql ": 1492,
        "\",\n    (0xC0, ": 1493,
        "\",\n    (0xC0, 0x": 1494,
        "scription": 1495,
        "pla": 1496,
        "AC": 1497,
        "debug": 1498,
        "He": 1499,
        "header_": 1500,
        "BC_SHA": 1501,
        ": %s": 1502,
        "re_": 1503,
        "www.": 1504,
        "-1": 1505,
        "ING": 1506,
        "glob": 1507,
        "attribute": 1508,
        "(os.path.join(": 1509,
        "indow": 1510,
        "TY": 1511,
        "Ar": 1512,
        "ea": 1513,
        "\"\n    ": 1514,
        "Add": 1515,
        "tree": 1516,
        ":`": 1517,
        "socket": 1518,
        "Py": 1519,
        "   '": 1520,
        "to the ": 1521,
        "b'": 1522,
        "client.": 1523,
        "net": 1524,
        "only ": 1525,
        "...": 1526,
        "strip": 1527,
        "buff": 1528,
        "s()": 1529,
        "\n#    ": 1530,
        "zip": 1531,
        "amb": 1532,
        "men": 1533,
        "\n        for ": 1534,
        "d by ": 1535,
        "TestCase": 1536,
        "00, ": 1537,
        "https": 1538,
        "print \"": 1539,
        "################################": 1540,
        "Man": 1541,
        "HT": 1542,
        "eta": 1543,
        "OF ": 1544,
        "(x": 1545,
        "ty_": 1546,
        "colle": 1547,
        "zinfo.": 1548,
        "=1": 1549,
        "Com": 1550,
        "er = ": 1551,
        "()\n            ": 1552,
        "sof": 1553,
        "unit": 1554,
        "2.0": 1555,
        "tag": 1556,
        "l.": 1557,
        "row": 1558,
        "input": 1559,
        "cho": 1560,
        ")\n\n\nclass ": 1561,
        "Time": 1562,
        "test.": 1563,
        "fail": 1564,
        "parser_arg": 1565,
        "ub": 1566,
        "application": 1567,
        "iter": 1568,
        "config.": 1569,
        "'),\n        ": 1570,
        "()\n": 1571,
        "s a ": 1572,
        "search": 1573,
        "DNS_": 1574,
        "ong": 1575,
        "dis": 1576,
        "Conne": 1577,
        "s: ": 1578,
        "\n            # ": 1579,
        "s['": 1580,
        "\n      ": 1581,
        "noti": 1582,
        "try:\n            ": 1583,
        "change": 1584,
        "< ": 1585,
        "output_": 1586,
        "db_": 1587,
        "image": 1588,
        "t, ": 1589,
        "], ": 1590,
        "== '": 1591,
        "LE": 1592,
        "ib": 1593,
        "Al": 1594,
        "viron": 1595,
        "so ": 1596,
        "s:\n            ": 1597,
        "foo": 1598,
        "Property": 1599,
        "~~": 1600,
        "org": 1601,
        "\"\n        ": 1602,
        "| ": 1603,
        "ment ": 1604,
        "Parser": 1605,
        "=\"20090214115": 1606,
        "\", sql_": 1607,
        "hf_": 1608,
        "_url": 1609,
        "ath": 1610,
        "Ver": 1611,
        "y, ": 1612,
        "ru": 1613,
        ".__": 1614,
        "exist": 1615,
        "range(": 1616,
        "giv": 1617,
        "or.": 1618,
        "side": 1619,
        "11100": 1620,
        "110110": 1621,
        "_cli.": 1622,
        "( g.": 1623,
        "defin": 1624,
        "\n\nclass ": 1625,
        "cop": 1626,
        "ature": 1627,
        "extra": 1628,
        "\n        self.assert": 1629,
        "pattern": 1630,
        "return_value": 1631,
        "frame": 1632,
        "**kwargs": 1633,
        "_re": 1634,
        "16": 1635,
        "sw": 1636,
        "if": 1637,
        "\n                            ": 1638,
        "may ": 1639,
        "mock.": 1640,
        "setup": 1641,
        "https://": 1642,
        "LL": 1643,
        "pop": 1644,
        "))\n    ": 1645,
        "tot": 1646,
        ")\n\n\ndef ": 1647,
        " as ": 1648,
        "(self):\n        self.": 1649,
        "in_": 1650,
        "\")\n    ": 1651,
        "tup": 1652,
        "Option": 1653,
        "(?": 1654,
        "command": 1655,
        "okie": 1656,
        "script[\"n": 1657,
        "polic": 1658,
        "pp": 1659,
        "document": 1660,
        "600": 1661,
        "Data": 1662,
        "____": 1663,
        "_migration": 1664,
        "ObjectProperty": 1665,
        "s': ": 1666,
        "\n\"\"\"": 1667,
        "wa": 1668,
        "MO": 1669,
        "s = []": 1670,
        "number ": 1671,
        "attr(": 1672,
        "matri": 1673,
        "1011111111": 1674,
        "13": 1675,
        "licen": 1676,
        "e.": 1677,
        "ull": 1678,
        "cond": 1679,
        "no ": 1680,
        "time.": 1681,
        "         ": 1682,
        "pos": 1683,
        "scal": 1684,
        "ght": 1685,
        "prefix": 1686,
        "Cre": 1687,
        "TO": 1688,
        "eld(": 1689,
        "data = ": 1690,
        "Not": 1691,
        " == '": 1692,
        "and_": 1693,
        "00, 0x": 1694,
        "s. ": 1695,
        "e_": 1696,
        "\",\n    (0x00, 0x": 1697,
        "file.": 1698,
        " \"": 1699,
        "Error(": 1700,
        "ing the ": 1701,
        "else:\n                ": 1702,
        "help": 1703,
        "=self.": 1704,
        ".com/": 1705,
        "VER": 1706,
        "AB": 1707,
        "%s\" % ": 1708,
        "_type": 1709,
        "parser.": 1710,
        "\n    def test_": 1711,
        "Header": 1712,
        "_CBC_SHA": 1713,
        "',\n        ": 1714,
        "lement": 1715,
        "Handl": 1716,
        "_p": 1717,
        "ign": 1718,
        "when ": 1719,
        "e the ": 1720,
        "K_": 1721,
        "emp": 1722,
        "numpy.": 1723,
        "s(self, ": 1724,
        "128": 1725,
        "has_": 1726,
        "http://www.": 1727,
        "_test_": 1728,
        "umn": 1729,
        ":\n      ": 1730,
        "1000": 1731,
        "have ": 1732,
        "\n  '": 1733,
        "SI": 1734,
        "save": 1735,
        "d in ": 1736,
        "ard": 1737,
        "id, ": 1738,
        "get_version": 1739,
        "table": 1740,
        "python": 1741,
        "Node(": 1742,
        " = None": 1743,
        "\n            self.": 1744,
        "mod": 1745,
        "nel": 1746,
        "dict(": 1747,
        "f.write": 1748,
        "Connection": 1749,
        "token.": 1750,
        "ning": 1751,
        "AME": 1752,
        "object_": 1753,
        "ult = ": 1754,
        "-*": 1755,
        "request.": 1756,
        "cache": 1757,
        "Unle": 1758,
        "bar": 1759,
        "s for ": 1760,
        "poin": 1761,
        "()\n        self.": 1762,
        "Key": 1763,
        "):\n        \"\"\"\n        ": 1764,
        "unt": 1765,
        "string ": 1766,
        "buted ": 1767,
        "vari": 1768,
        "it_": 1769,
        "',\n    ": 1770,
        "paren": 1771,
        "Field(": 1772,
        "has ": 1773,
        ".\n\n        ": 1774,
        "lef": 1775,
        "s[0]": 1776,
        "while ": 1777,
        "ive ": 1778,
        "_from_": 1779,
        "config=": 1780,
        "ance": 1781,
        "ory": 1782,
        "with the ": 1783,
        "x ": 1784,
        "add(": 1785,
        "cf": 1786,
        "den": 1787,
        "RSA_": 1788,
        "utf": 1789,
        "resour": 1790,
        "TP": 1791,
        "timeout": 1792,
        "Version": 1793,
        "plugin": 1794,
        "bb": 1795,
        "ZIP": 1796,
        "%}": 1797,
        "'] = ": 1798,
        "_list": 1799,
        ".  ": 1800,
        "Log": 1801,
        "Mess": 1802,
        "tmp": 1803,
        "_get_": 1804,
        "loop": 1805,
        "Mock": 1806,
        "dest": 1807,
        "Info": 1808,
        "else ": 1809,
        "print_": 1810,
        "addres": 1811,
        "cu": 1812,
        "teger": 1813,
        ":\n            self.": 1814,
        "cer": 1815,
        "amp": 1816,
        "igh": 1817,
        "make": 1818,
        "or_": 1819,
        "400": 1820,
        "initial_": 1821,
        "><": 1822,
        "15": 1823,
        "API": 1824,
        "0 ": 1825,
        "ameter": 1826,
        "ly": 1827,
        "'s ": 1828,
        ".\n        \"\"\"\n        ": 1829,
        "atch": 1830,
        "ed to ": 1831,
        "3.": 1832,
        "err": 1833,
        "distributed ": 1834,
        "_b": 1835,
        "mation": 1836,
        "processe": 1837,
        "Input": 1838,
        "name='": 1839,
        "Cop": 1840,
        "      ": 1841,
        "',\n  '": 1842,
        "ail": 1843,
        "Fo": 1844,
        "vide": 1845,
        ":\n            raise ": 1846,
        "edge": 1847,
        "filter": 1848,
        "space": 1849,
        "serialize": 1850,
        "Zip": 1851,
        "license": 1852,
        "source": 1853,
        "\n        return ": 1854,
        "nex": 1855,
        "AD": 1856,
        "c ": 1857,
        "b.": 1858,
        "s', '": 1859,
        "encoding": 1860,
        "factor": 1861,
        "h.": 1862,
        "_to_": 1863,
        "calle": 1864,
        "confirmation": 1865,
        "offset": 1866,
        "server.": 1867,
        "ame ": 1868,
        "put ": 1869,
        ":\n                        ": 1870,
        "ATION": 1871,
        "Rai": 1872,
        "func": 1873,
        "core": 1874,
        "): \"TLS_DH": 1875,
        "CO": 1876,
        "multi": 1877,
        "Window": 1878,
        "list of ": 1879,
        " = 0": 1880,
        ")\n\n    # ": 1881,
        "data.": 1882,
        " = [": 1883,
        "current_": 1884,
        "ObjectPropertyType,\n    '": 1885,
        "t(": 1886,
        "At": 1887,
        ")\n            self.": 1888,
        "lear": 1889,
        "time ": 1890,
        "2, ": 1891,
        "logging.": 1892,
        "You ": 1893,
        "dep": 1894,
        "}}": 1895,
        "DB": 1896,
        "migration.": 1897,
        "call('": 1898,
        "Copy": 1899,
        "utf-8": 1900,
        "serve": 1901,
        "PO": 1902,
        "org/": 1903,
        "Bo": 1904,
        "s (": 1905,
        "gener": 1906,
        "dit": 1907,
        "-1]": 1908,
        "' in ": 1909,
        "Ge": 1910,
        "%(": 1911,
        "Copyright ": 1912,
        "enable": 1913,
        "):\n        self.": 1914,
        "name__": 1915,
        "THE ": 1916,
        "extension": 1917,
        "value = ": 1918,
        "raw_": 1919,
        "hook": 1920,
        "10110": 1921,
        "compress": 1922,
        "cookie": 1923,
        "o.": 1924,
        "api.": 1925,
        "max_length": 1926,
        "null": 1927,
        "RAN": 1928,
        "iz": 1929,
        "_string": 1930,
        "'\n    ": 1931,
        ",\n                                        ": 1932,
        "ort_": 1933,
        "ine": 1934,
        "reader": 1935,
        "_test_migration.": 1936,
        "_test_migration.migration": 1937,
        "start_": 1938,
        "a.": 1939,
        "must ": 1940,
        "fol": 1941,
        "expected_": 1942,
        "memb": 1943,
        "ES_": 1944,
        "geome": 1945,
        "\nfrom django.": 1946,
        "args, ": 1947,
        "os": 1948,
        "raise": 1949,
        "each ": 1950,
        ".strip": 1951,
        "ind": 1952,
        "IT": 1953,
        "code_": 1954,
        "fication": 1955,
        "message ": 1956,
        "') ": 1957,
        "\n        else:\n            ": 1958,
        "\n\n    def test_": 1959,
        "day": 1960,
        "result = ": 1961,
        "')\n": 1962,
        "URL": 1963,
        "other": 1964,
        "size ": 1965,
        "method ": 1966,
        "lish": 1967,
        "contain": 1968,
        "))\n            ": 1969,
        "update(": 1970,
        "]]": 1971,
        "og": 1972,
        "ape": 1973,
        ")\n\t\tself.assert": 1974,
        "description": 1975,
        "age = ": 1976,
        "but ": 1977,
        "environ": 1978,
        "pub": 1979,
        "datetime.": 1980,
        "now": 1981,
        "{\n            ": 1982,
        "s that ": 1983,
        "fn": 1984,
        "Fil": 1985,
        "ValueError": 1986,
        "instance ": 1987,
        "Raise": 1988,
        "','": 1989,
        ")\n\n            ": 1990,
        "Plu": 1991,
        "a_": 1992,
        "\n\n        # ": 1993,
        "tem": 1994,
        "with('": 1995,
        "})\n        ": 1996,
        "auto": 1997,
        "ss ": 1998,
        ":\n            return ": 1999,
        "red": 2000,
        "Form": 2001,
        "task": 2002,
        "ed.": 2003,
        ",\n                                                ": 2004,
        "directory": 2005,
        "_P": 2006,
        "form ": 2007,
        "Defa": 2008,
        "head": 2009,
        "\n\n    # ": 2010,
        ", b": 2011,
        "lank": 2012,
        "D ": 2013,
        "cket": 2014,
        "red ": 2015,
        "rando": 2016,
        "ally ": 2017,
        "atu": 2018,
        "stdo": 2019,
        "script[\"add2": 2020,
        "HTTP": 2021,
        "delete": 2022,
        "origin": 2023,
        "proto": 2024,
        "will be ": 2025,
        ") for ": 2026,
        ", e": 2027,
        "opt_": 2028,
        "ate_": 2029,
        "=\"sql ": 2030,
        "{% ": 2031,
        "scr_": 2032,
        "dir, \"hf_": 2033,
        "password": 2034,
        "Run": 2035,
        "\n\n    def get_": 2036,
        "key ": 2037,
        "30": 2038,
        "argument": 2039,
        "(1": 2040,
        "_file": 2041,
        "Cl": 2042,
        "_id = ": 2043,
        "\n\n    @": 2044,
        "given ": 2045,
        "1111100": 2046,
        "termi": 2047,
        "ning ": 2048,
        "(0": 2049,
        "Request": 2050,
        "whe": 2051,
        ":]": 2052,
        "ct(": 2053,
        " or ": 2054,
        "root": 2055,
        "s_to_": 2056,
        "_0": 2057,
        "rule": 2058,
        "send_": 2059,
        "decode": 2060,
        "is a ": 2061,
        "location": 2062,
        "ANY ": 2063,
        "MA": 2064,
        "i in ": 2065,
        "================": 2066,
        "not in ": 2067,
        "langu": 2068,
        "v_": 2069,
        "(os.path.join(test_": 2070,
        ":type ": 2071,
        "f.write('": 2072,
        "\"] = Gaff": 2073,
        "kwarg": 2074,
        "Set": 2075,
        "Cont": 2076,
        "US": 2077,
        "olean": 2078,
        "dump": 2079,
        "cap": 2080,
        "300": 2081,
        "' % (": 2082,
        "IO": 2083,
        "logger.": 2084,
        "raph": 2085,
        "inclu": 2086,
        "user_": 2087,
        "softw": 2088,
        "LOG": 2089,
        ")\n                    ": 2090,
        "P<": 2091,
        "pret": 2092,
        "():\n    ": 2093,
        " = True": 2094,
        "__name__": 2095,
        "objects.": 2096,
        "instr": 2097,
        "input_": 2098,
        "For": 2099,
        "Migration": 2100,
        "': 'True'}),\n            '": 2101,
        "\".": 2102,
        "hi": 2103,
        "ge ": 2104,
        "befo": 2105,
        "\" + ": 2106,
        "ither ": 2107,
        "(), ": 2108,
        "):\n        if ": 2109,
        "ize": 2110,
        "linen": 2111,
        "_dict": 2112,
        "property(\"": 2113,
        "roll": 2114,
        "mode": 2115,
        "rece": 2116,
        "presen": 2117,
        "', 'b": 2118,
        "expected": 2119,
        "Auth": 2120,
        "dtype": 2121,
        "#### ": 2122,
        ")\n\n\t": 2123,
        "ice": 2124,
        ":: ": 2125,
        "df.": 2126,
        "UI": 2127,
        "outf.write('": 2128,
        "ree ": 2129,
        "addr": 2130,
        "',\n            '": 2131,
        "UN": 2132,
        "admin": 2133,
        "contin": 2134,
        "id=": 2135,
        "ent = ": 2136,
        "']\n        ": 2137,
        "Col": 2138,
        "on_": 2139,
        "coder": 2140,
        "crash": 2141,
        "WITH_A": 2142,
        "WITH_AES_": 2143,
        "options": 2144,
        "2 ": 2145,
        "DO": 2146,
        "Manag": 2147,
        "(?P<": 2148,
        "'<": 2149,
        "(f": 2150,
        "Sh": 2151,
        "[[": 2152,
        "stm": 2153,
        "abi": 2154,
        "specific": 2155,
        "WARRAN": 2156,
        ") + ": 2157,
        "shutil.": 2158,
        "r['": 2159,
        "11011111111": 2160,
        "CM": 2161,
        "(c": 2162,
        "TYP": 2163,
        "ile": 2164,
        "'), ": 2165,
        "[2": 2166,
        "was ": 2167,
        "trace": 2168,
        "s = self.": 2169,
        "40": 2170,
        "tl": 2171,
        "feren": 2172,
        "true": 2173,
        "reak": 2174,
        "s or ": 2175
    },
    "ids_to_chr": {
        "0": "<bos>",
        "1": "<eos>",
        "2": "<pad>",
        "3": "<unk>",
        "4": "\t",
        "5": "\n",
        "6": "\f",
        "7": " ",
        "8": "!",
        "9": "\"",
        "10": "#",
        "11": "$",
        "12": "%",
        "13": "&",
        "14": "'",
        "15": "(",
        "16": ")",
        "17": "*",
        "18": "+",
        "19": ",",
        "20": "-",
        "21": ".",
        "22": "/",
        "23": "0",
        "24": "1",
        "25": "2",
        "26": "3",
        "27": "4",
        "28": "5",
        "29": "6",
        "30": "7",
        "31": "8",
        "32": "9",
        "33": ":",
        "34": ";",
        "35": "<",
        "36": "=",
        "37": ">",
        "38": "?",
        "39": "@",
        "40": "A",
        "41": "B",
        "42": "C",
        "43": "D",
        "44": "E",
        "45": "F",
        "46": "G",
        "47": "H",
        "48": "I",
        "49": "J",
        "50": "K",
        "51": "L",
        "52": "M",
        "53": "N",
        "54": "O",
        "55": "P",
        "56": "Q",
        "57": "R",
        "58": "S",
        "59": "T",
        "60": "U",
        "61": "V",
        "62": "W",
        "63": "X",
        "64": "Y",
        "65": "Z",
        "66": "[",
        "67": "\\",
        "68": "]",
        "69": "^",
        "70": "_",
        "71": "`",
        "72": "a",
        "73": "b",
        "74": "c",
        "75": "d",
        "76": "e",
        "77": "f",
        "78": "g",
        "79": "h",
        "80": "i",
        "81": "j",
        "82": "k",
        "83": "l",
        "84": "m",
        "85": "n",
        "86": "o",
        "87": "p",
        "88": "q",
        "89": "r",
        "90": "s",
        "91": "t",
        "92": "u",
        "93": "v",
        "94": "w",
        "95": "x",
        "96": "y",
        "97": "z",
        "98": "{",
        "99": "|",
        "100": "}",
        "101": "~",
        "102": "\u0080",
        "103": "\u0081",
        "104": "\u0082",
        "105": "\u0083",
        "106": "\u0084",
        "107": "\u0085",
        "108": "\u0086",
        "109": "\u0087",
        "110": "\u0088",
        "111": "\u0089",
        "112": "\u008a",
        "113": "\u008b",
        "114": "\u008c",
        "115": "\u008d",
        "116": "\u008e",
        "117": "\u008f",
        "118": "\u0090",
        "119": "\u0091",
        "120": "\u0092",
        "121": "\u0093",
        "122": "\u0094",
        "123": "\u0095",
        "124": "\u0096",
        "125": "\u0097",
        "126": "\u0098",
        "127": "\u0099",
        "128": "\u009a",
        "129": "\u009b",
        "130": "\u009c",
        "131": "\u009d",
        "132": "\u009e",
        "133": "\u009f",
        "134": "\u00a0",
        "135": "\u00a1",
        "136": "\u00a2",
        "137": "\u00a3",
        "138": "\u00a4",
        "139": "\u00a5",
        "140": "\u00a6",
        "141": "\u00a7",
        "142": "\u00a8",
        "143": "\u00a9",
        "144": "\u00aa",
        "145": "\u00ab",
        "146": "\u00ac",
        "147": "\u00ad",
        "148": "\u00ae",
        "149": "\u00af",
        "150": "\u00b0",
        "151": "\u00b1",
        "152": "\u00b2",
        "153": "\u00b3",
        "154": "\u00b4",
        "155": "\u00b5",
        "156": "\u00b6",
        "157": "\u00b7",
        "158": "\u00b8",
        "159": "\u00b9",
        "160": "\u00ba",
        "161": "\u00bb",
        "162": "\u00bc",
        "163": "\u00bd",
        "164": "\u00be",
        "165": "\u00bf",
        "166": "\u00c2",
        "167": "\u00e2",
        "168": "\u00e3",
        "169": "\u00e4",
        "170": "\u00e5",
        "171": "\u00e6",
        "172": "\u00e7",
        "173": "\u00e8",
        "174": "\u00e9",
        "175": "\u00ef",
        "176": "  ",
        "177": "    ",
        "178": "        ",
        "179": "\n        ",
        "180": "se",
        "181": "11",
        "182": ", ",
        "183": "in",
        "184": "re",
        "185": "on",
        "186": "er",
        "187": "at",
        "188": "or",
        "189": "= ",
        "190": "e ",
        "191": "st",
        "192": "\n    ",
        "193": "s ",
        "194": "sel",
        "195": "en",
        "196": "self",
        "197": "de",
        "198": "th",
        "199": "t ",
        "200": "f ",
        "201": "al",
        "202": "ar",
        "203": "an",
        "204": "self.",
        "205": "ion",
        "206": "le",
        "207": ":\n        ",
        "208": "te",
        "209": " = ",
        "210": "1111",
        "211": "me",
        "212": ")\n        ",
        "213": "--",
        "214": "ro",
        "215": "co",
        "216": "d ",
        "217": "fi",
        "218": "ge",
        "219": "t_",
        "220": ")\n",
        "221": "ur",
        "222": "mp",
        "223": "as",
        "224": ": ",
        "225": "\"\"",
        "226": "ser",
        "227": "ct",
        "228": "li",
        "229": "##",
        "230": "to",
        "231": "s.",
        "232": "ad",
        "233": "ce",
        "234": "lo",
        "235": "ing",
        "236": "the ",
        "237": "10",
        "238": "# ",
        "239": "ch",
        "240": "ue",
        "241": "ri",
        "242": "ti",
        "243": "el",
        "244": "\n                ",
        "245": "\n            ",
        "246": "\n\n",
        "247": "for",
        "248": "def ",
        "249": "):\n        ",
        "250": "di",
        "251": "un",
        "252": "ck",
        "253": "ex",
        "254": "ame",
        "255": "con",
        "256": "if ",
        "257": "', ",
        "258": "no",
        "259": "ver",
        "260": "dat",
        "261": "ret",
        "262": "urn",
        "263": "00",
        "264": "is ",
        "265": "----",
        "266": "ap",
        "267": "ut",
        "268": "in ",
        "269": "(self",
        "270": "('",
        "271": "return",
        "272": "ul",
        "273": "imp",
        "274": "mo",
        "275": "pe",
        "276": "y ",
        "277": "ation",
        "278": "ss",
        "279": "id",
        "280": "m ",
        "281": "\n    def ",
        "282": "ent",
        "283": "\"\"\"",
        "284": "ma",
        "285": "ty",
        "286": "op",
        "287": "name",
        "288": "ort ",
        "289": "d_",
        "290": "one",
        "291": "tr",
        "292": ") ",
        "293": "__",
        "294": "####",
        "295": "ig",
        "296": "ab",
        "297": "for ",
        "298": "a ",
        "299": "import ",
        "300": "': ",
        "301": "return ",
        "302": ":\n            ",
        "303": "um",
        "304": "to ",
        "305": "s_",
        "306": "ate",
        "307": "fro",
        "308": "val",
        "309": "test",
        "310": "pro",
        "311": "up",
        "312": "cl",
        "313": "arg",
        "314": "il",
        "315": "par",
        "316": "res",
        "317": "do",
        "318": "ter",
        "319": "s = ",
        "320": "str",
        "321": "asser",
        "322": "None",
        "323": ")\n    ",
        "324": ",\n                ",
        "325": "']",
        "326": "['",
        "327": "ing ",
        "328": "ne",
        "329": "from ",
        "330": "', '",
        "331": "am",
        "332": "se ",
        "333": "                ",
        "334": "s(",
        "335": "ror",
        "336": "pat",
        "337": "):",
        "338": "it",
        "339": "file",
        "340": "11111111",
        "341": "pt",
        "342": "ag",
        "343": "qu",
        "344": "of ",
        "345": "get_",
        "346": "ction",
        "347": "sh",
        "348": "ic",
        "349": "bj",
        "350": "all",
        "351": "get",
        "352": "e = ",
        "353": "Tr",
        "354": "sc",
        "355": "ve",
        "356": "fo",
        "357": "len",
        "358": "(self, ",
        "359": "1110",
        "360": "clas",
        "361": "he",
        "362": "==",
        "363": "not ",
        "364": "vi",
        "365": "ith",
        "366": "110",
        "367": "and ",
        "368": "True",
        "369": "er ",
        "370": "ke",
        "371": "sion",
        "372": "d(",
        "373": "so",
        "374": "bu",
        "375": "''",
        "376": "set",
        "377": "path",
        "378": ")\n        self.",
        "379": "po",
        "380": "s, ",
        "381": "data",
        "382": "--------",
        "383": "lin",
        "384": "fa",
        "385": "app",
        "386": "time",
        "387": "assert",
        "388": "\", ",
        "389": "bje",
        "390": "et",
        "391": ")\n            ",
        "392": "ra",
        "393": "\n\n    ",
        "394": "and",
        "395": "== ",
        "396": "si",
        "397": "(self):\n        ",
        "398": ":\n                ",
        "399": "com",
        "400": "ase",
        "401": "ht",
        "402": "out",
        "403": "ff",
        "404": "\n# ",
        "405": "ack",
        "406": "(\"",
        "407": "\t\t",
        "408": "bo",
        "409": "):\n    ",
        "410": ",\n            ",
        "411": "form",
        "412": "test_",
        "413": ",\n    ",
        "414": "re ",
        "415": "with",
        "416": "   ",
        "417": "' ",
        "418": "\n\n        ",
        "419": "y_",
        "420": "log",
        "421": "or ",
        "422": "list",
        "423": "url",
        "424": "che",
        "425": "value",
        "426": "ader",
        "427": "t = ",
        "428": "ren",
        "429": "[\"",
        "430": "\"]",
        "431": "Er",
        "432": "version",
        "433": "age",
        "434": "self._",
        "435": "Error",
        "436": "eld",
        "437": "\" ",
        "438": ")\n\n        ",
        "439": "le ",
        "440": "que",
        "441": "sp",
        "442": "code",
        "443": "su",
        "444": "del",
        "445": "int",
        "446": "########",
        "447": "In",
        "448": "db",
        "449": ")\n\n    def ",
        "450": "add",
        "451": "per",
        "452": "py",
        "453": "Th",
        "454": ").",
        "455": "fig",
        "456": "as ",
        "457": ")\n\n",
        "458": "obje",
        "459": "rec",
        "460": "date",
        "461": "': '",
        "462": "ON",
        "463": "% ",
        "464": ". ",
        "465": "go",
        "466": "ult",
        "467": "tex",
        "468": "class ",
        "469": "ou",
        "470": "\nfrom ",
        "471": "\n#",
        "472": "')",
        "473": "type",
        "474": "scri",
        "475": "pr",
        "476": "cli",
        "477": "%s",
        "478": "num",
        "479": "os.",
        "480": "er.",
        "481": "an ",
        "482": "l ",
        "483": "Re",
        "484": "TH",
        "485": "dir",
        "486": "\n\n    def ",
        "487": "quest",
        "488": "+ ",
        "489": "S_",
        "490": "igr",
        "491": "(self.",
        "492": "            ",
        "493": "ip",
        "494": " in ",
        "495": "alse",
        "496": "au",
        "497": "user",
        "498": "ol",
        "499": "0x",
        "500": "key",
        "501": "qual",
        "502": "wor",
        "503": "mi",
        "504": "=\"",
        "505": "( ",
        "506": "ption",
        "507": "server",
        "508": "False",
        "509": "//",
        "510": "ER",
        "511": "read",
        "512": "='",
        "513": "ho",
        "514": "d.",
        "515": "la",
        "516": "cont",
        "517": "IN",
        "518": "tp",
        "519": ",\n        ",
        "520": "sa",
        "521": "with ",
        "522": "comm",
        "523": "), ",
        "524": "stan",
        "525": "model",
        "526": "[0",
        "527": "pu",
        "528": "ec",
        "529": "config",
        "530": "ist",
        "531": "ze",
        "532": "::",
        "533": "est",
        "534": "x_",
        "535": "lic",
        "536": "igration",
        "537": "at ",
        "538": "wri",
        "539": "in(",
        "540": "header",
        "541": "line",
        "542": "Con",
        "543": "comp",
        "544": "No",
        "545": "ort",
        "546": "info",
        "547": "\"\"\"\n        ",
        "548": "opt",
        "549": "field",
        "550": "else",
        "551": "Fi",
        "552": ")\n        self.assert",
        "553": "request",
        "554": "coun",
        "555": "pec",
        "556": "OR",
        "557": "ini",
        "558": "ac",
        "559": "exce",
        "560": "_id",
        "561": "der",
        "562": "**",
        "563": ")\n\n    ",
        "564": "en ",
        "565": "> ",
        "566": "the",
        "567": "pre",
        "568": "\n        self.",
        "569": "error",
        "570": "resp",
        "571": "ype",
        "572": "cre",
        "573": "s=",
        "574": "{'",
        "575": "200",
        "576": "ctor",
        "577": "be ",
        "578": "jo",
        "579": "text",
        "580": "):\n            ",
        "581": ", '",
        "582": "rai",
        "583": "====",
        "584": "is",
        "585": "wn",
        "586": "this ",
        "587": "able",
        "588": "ite",
        "589": "migration",
        "590": "TI",
        "591": "[0]",
        "592": "doc",
        "593": "ed",
        "594": "string",
        "595": "wh",
        "596": "[]",
        "597": "E_",
        "598": "ssion",
        "599": "al ",
        "600": "Test",
        "601": "- ",
        "602": "111110",
        "603": "http",
        "604": "object",
        "605": "Equal",
        "606": "\\n",
        "607": "EN",
        "608": "ie",
        "609": "ces",
        "610": "ken",
        "611": "()\n        ",
        "612": "on ",
        "613": "path.",
        "614": "stat",
        "615": " = self.",
        "616": "du",
        "617": "11110",
        "618": "\n\n\n",
        "619": "instan",
        "620": "nam",
        "621": "sig",
        "622": "numb",
        "623": "S ",
        "624": "meth",
        "625": "script",
        "626": "node",
        "627": "w_",
        "628": ": \"",
        "629": "cod",
        "630": "y.",
        "631": "m_",
        "632": "put",
        "633": "lock",
        "634": "Co",
        "635": "call",
        "636": "mess",
        "637": "tri",
        "638": "cal",
        "639": "02",
        "640": "mat",
        "641": "sen",
        "642": "_S",
        "643": "f_",
        "644": "til",
        "645": "onse",
        "646": "----------------",
        "647": "ce ",
        "648": "jan",
        "649": ",\n                                ",
        "650": ", \"",
        "651": "be",
        "652": "sub",
        "653": "os.path.",
        "654": "jango",
        "655": "sy",
        "656": "dex",
        "657": "Pro",
        "658": "ure",
        "659": "ment",
        "660": "defa",
        "661": "ali",
        "662": "sg",
        "663": "14",
        "664": "://",
        "665": "s[",
        "666": "mple",
        "667": "))\n        ",
        "668": "..",
        "669": "min",
        "670": "format",
        "671": "col",
        "672": "appen",
        "673": "ta",
        "674": "parse",
        "675": "len(",
        "676": "parser",
        "677": "AR",
        "678": "token",
        "679": "ran",
        "680": "prin",
        "681": "son",
        "682": "al_",
        "683": "metho",
        "684": "option",
        "685": "Lic",
        "686": "Licen",
        "687": "Type",
        "688": "ch ",
        "689": "raise ",
        "690": "top",
        "691": "``",
        "692": "try",
        "693": "temp",
        "694": "E ",
        "695": "by",
        "696": "Ex",
        "697": "django",
        "698": "cur",
        "699": "er(",
        "700": "of the ",
        "701": "\n  ",
        "702": "ation ",
        "703": "st ",
        "704": "ress",
        "705": "star",
        "706": "p.",
        "707": "fun",
        "708": "0, ",
        "709": "main",
        "710": "to_",
        "711": "util",
        "712": "ok",
        "713": "\nimport ",
        "714": "und",
        "715": "The ",
        "716": "_C",
        "717": "are ",
        "718": "w ",
        "719": "tra",
        "720": "end",
        "721": "join(",
        "722": "script[\"",
        "723": "'''",
        "724": "lu",
        "725": "\"\"\"\n    ",
        "726": "pt ",
        "727": "f.",
        "728": "ve ",
        "729": "m.",
        "730": "sq",
        "731": "typ",
        "732": "ent ",
        "733": "sho",
        "734": "response",
        "735": "set_",
        "736": "=None",
        "737": "that ",
        "738": "has",
        "739": "er_",
        "740": "1]",
        "741": "\", \"",
        "742": "\n                    ",
        "743": "dict",
        "744": ".0",
        "745": "ev",
        "746": " import ",
        "747": "100",
        "748": "result",
        "749": "cr",
        "750": "django.",
        "751": "exp",
        "752": "),\n            ",
        "753": "################",
        "754": "is_",
        "755": "conne",
        "756": "mock",
        "757": "l_",
        "758": "12",
        "759": "lab",
        "760": "AN",
        "761": "use",
        "762": "ed ",
        "763": "2009",
        "764": "115",
        "765": "cess",
        "766": "ass",
        "767": "ted",
        "768": "us",
        "769": "WI",
        "770": "200902",
        "771": "20090214",
        "772": "20090214115",
        "773": "fin",
        "774": "ted ",
        "775": ")\n\n\n",
        "776": "write",
        "777": "Equal(",
        "778": "index",
        "779": "instance",
        "780": "De",
        "781": "ly ",
        "782": "stri",
        "783": "it ",
        "784": "St",
        "785": "create",
        "786": "LI",
        "787": "json",
        "788": "EC",
        "789": "ent_",
        "790": "args",
        "791": "label",
        "792": "perty",
        "793": "by ",
        "794": "on.",
        "795": "append(",
        "796": ".\n        ",
        "797": "',",
        "798": " is ",
        "799": "\")",
        "800": "ument",
        "801": "db.",
        "802": "low",
        "803": "auth",
        "804": "le_",
        "805": "st_",
        "806": "ext",
        "807": "self.assert",
        "808": "1100",
        "809": "WITH",
        "810": "count",
        "811": ":\n    ",
        "812": "back",
        "813": "</",
        "814": "base",
        "815": "lat",
        "816": " == ",
        "817": "ire",
        "818": "11111110",
        "819": "ST",
        "820": "Se",
        "821": "are",
        "822": "ay",
        "823": "file ",
        "824": "block",
        "825": "check",
        "826": "Mo",
        "827": "t__",
        "828": "sup",
        "829": "except ",
        "830": "andl",
        "831": "if not ",
        "832": "eli",
        "833": "recor",
        "834": " = '",
        "835": "models.",
        "836": "late",
        "837": "elif ",
        "838": "()",
        "839": "fe",
        "840": ")\n\n    def test_",
        "841": "kw",
        "842": "message",
        "843": "exec",
        "844": "print ",
        "845": "filen",
        "846": "' % ",
        "847": "TL",
        "848": "fir",
        "849": ")\n\t\t",
        "850": "This ",
        "851": "mar",
        "852": ".\n    ",
        "853": "ree",
        "854": "logg",
        "855": "gh",
        "856": "load",
        "857": "vali",
        "858": "pass",
        "859": "1111110",
        "860": "type ",
        "861": "default",
        "862": "run",
        "863": "spec",
        "864": "RE",
        "865": "20",
        "866": "ive",
        "867": "=True",
        "868": "http://",
        "869": "cor",
        "870": "lev",
        "871": "vice",
        "872": "size",
        "873": "argv",
        "874": "ct ",
        "875": "if self.",
        "876": "s/",
        "877": "s import ",
        "878": "fic",
        "879": "g.",
        "880": "msg",
        "881": "gro",
        "882": "age ",
        "883": "gth",
        "884": "ca",
        "885": "work",
        "886": "byte",
        "887": "tw",
        "888": "dire",
        "889": "port",
        "890": "down",
        "891": "ww",
        "892": "Lo",
        "893": "'}",
        "894": "curren",
        "895": "os.path.join(",
        "896": " (",
        "897": "sock",
        "898": ")\n                ",
        "899": "\",\n    ",
        "900": "d, ",
        "901": "tar",
        "902": "25",
        "903": "ting",
        "904": "init__",
        "905": "A_",
        "906": "_name",
        "907": "Ch",
        "908": "\" % ",
        "909": ":\n                    ",
        "910": "_arg",
        "911": "topic",
        "912": "tit",
        "913": "requ",
        "914": "__init__",
        "915": "DE",
        "916": "one ",
        "917": "char",
        "918": "pack",
        "919": "item",
        "920": "valu",
        "921": "s the ",
        "922": "le(",
        "923": "we",
        "924": "open",
        "925": "\": ",
        "926": "\n\t",
        "927": "Ad",
        "928": "gin",
        "929": "attr",
        "930": "     ",
        "931": "{}",
        "932": "api",
        "933": "HA",
        "934": ",\n    '",
        "935": "assert_",
        "936": "info.",
        "937": "env",
        "938": "ain",
        "939": "act",
        "940": "c.",
        "941": "\n\nfrom ",
        "942": "mail",
        "943": "lan",
        "944": "(0x",
        "945": "License",
        "946": "bod",
        "947": "tx",
        "948": "): \"",
        "949": "ill ",
        "950": "1, ",
        "951": "yp",
        "952": "\"] ",
        "953": "): \"TL",
        "954": "): \"TLS_",
        "955": "\",\n    (0x",
        "956": "LO",
        "957": "c_",
        "958": "_cli",
        "959": "d = ",
        "960": "ou ",
        "961": "proces",
        "962": "clo",
        "963": "')\n        ",
        "964": "SE",
        "965": "Field",
        "966": "sign",
        "967": "s to ",
        "968": "t.",
        "969": ",\n                        ",
        "970": "address",
        "971": "T ",
        "972": "am ",
        "973": "iv",
        "974": "length",
        "975": "DI",
        "976": "FI",
        "977": "Un",
        "978": "* ",
        "979": "o ",
        "980": "w.",
        "981": "ai",
        "982": "vie",
        "983": ")\n\n\t\t",
        "984": "update",
        "985": "else:\n            ",
        "986": "dn",
        "987": "level",
        "988": "function",
        "989": "shoul",
        "990": "If ",
        "991": "AT",
        "992": "reg",
        "993": "bject",
        "994": "aff",
        "995": "T_",
        "996": "oth",
        "997": "ate ",
        "998": "client",
        "999": "Str",
        "1000": "filename",
        "1001": "sche",
        "1002": "from_",
        "1003": " for ",
        "1004": "r_",
        "1005": "lag",
        "1006": "$$",
        "1007": "name = ",
        "1008": "fix",
        "1009": "ml",
        "1010": "ME",
        "1011": "will ",
        "1012": "TION",
        "1013": "tern",
        "1014": "arch",
        "1015": "() ",
        "1016": " = \"",
        "1017": "is not ",
        "1018": "name ",
        "1019": "Par",
        "1020": "fil",
        "1021": "OR ",
        "1022": "var",
        "1023": ".com",
        "1024": "En",
        "1025": "OF",
        "1026": "print",
        "1027": "bin",
        "1028": "remo",
        "1029": "\n        if ",
        "1030": "assert ",
        "1031": "stru",
        "1032": "ad ",
        "1033": "_SHA",
        "1034": "\n\t\t",
        "1035": "\n\n\nclass ",
        "1036": "in the ",
        "1037": "out ",
        "1038": "expec",
        "1039": "put_",
        "1040": "ute",
        "1041": "hel",
        "1042": "========",
        "1043": "\\\\",
        "1044": "ste",
        "1045": "datab",
        "1046": "fields.",
        "1047": "mit",
        "1048": "1.",
        "1049": ">> ",
        "1050": "bute",
        "1051": "name, ",
        "1052": ")\n        self.assertEqual(",
        "1053": "common.",
        "1054": "gen",
        "1055": "speci",
        "1056": "u'",
        "1057": "Gaff",
        "1058": "=False",
        "1059": "our",
        "1060": "64",
        "1061": "man",
        "1062": "word",
        "1063": "\n        # ",
        "1064": "\",",
        "1065": "geo",
        "1066": "property",
        "1067": "ot",
        "1068": "util.",
        "1069": "spli",
        "1070": "ing.",
        "1071": "s']",
        "1072": "cy",
        "1073": "datetime",
        "1074": "s\n    ",
        "1075": "flo",
        "1076": " + ",
        "1077": "1010",
        "1078": "gr",
        "1079": "=None, ",
        "1080": "off",
        "1081": "D_",
        "1082": "  # ",
        "1083": "Node",
        "1084": "range",
        "1085": "class",
        "1086": "director",
        "1087": " of ",
        "1088": "lib",
        "1089": "fr",
        "1090": "[], ",
        "1091": "ity",
        "1092": "dw",
        "1093": "\"][\"",
        "1094": "AP",
        "1095": " and ",
        "1096": "': ('",
        "1097": "sto",
        "1098": "param ",
        "1099": "tribute",
        "1100": "require",
        "1101": "):\n    \"\"\"",
        "1102": "Object",
        "1103": "can ",
        "1104": "::::",
        "1105": "re.",
        "1106": "IP",
        "1107": "nu",
        "1108": "set ",
        "1109": "sr",
        "1110": "lay",
        "1111": "clu",
        "1112": "af",
        "1113": "Ret",
        "1114": "method",
        "1115": " to ",
        "1116": "stre",
        "1117": "UR",
        "1118": "group",
        "1119": "!= ",
        "1120": "_de",
        "1121": "ask",
        "1122": "able ",
        "1123": "chan",
        "1124": "_version",
        "1125": "obj",
        "1126": "script[\"add",
        "1127": "Ser",
        "1128": "(\n            ",
        "1129": "session",
        "1130": "pi",
        "1131": "connection",
        "1132": "flag",
        "1133": "host",
        "1134": "stop",
        "1135": "we ",
        "1136": "Exce",
        "1137": "_numb",
        "1138": "_in",
        "1139": "y(",
        "1140": "ll",
        "1141": ", self.",
        "1142": "WITH_",
        "1143": "start",
        "1144": "applic",
        "1145": ".get_",
        "1146": "\n\n# ",
        "1147": "ample",
        "1148": "close",
        "1149": "ha",
        "1150": "mission",
        "1151": "stack",
        "1152": "add_",
        "1153": "copy",
        "1154": "Me",
        "1155": "IS",
        "1156": "orm",
        "1157": ">>> ",
        "1158": "title",
        "1159": "buil",
        "1160": "Exception",
        "1161": "django.db.",
        "1162": "ci",
        "1163": "+= ",
        "1164": "Return",
        "1165": "':",
        "1166": "exception",
        "1167": "action",
        "1168": "\",\"",
        "1169": "256",
        "1170": ":param ",
        "1171": "sour",
        "1172": "):\n                ",
        "1173": "mb",
        "1174": "seri",
        "1175": "kwargs",
        "1176": "me ",
        "1177": "er the ",
        "1178": "pri",
        "1179": "String",
        "1180": "MP",
        "1181": "True(",
        "1182": "sk",
        "1183": "ect",
        "1184": "django.db.models.",
        "1185": "pa",
        "1186": "cm",
        "1187": "state",
        "1188": "database",
        "1189": "led",
        "1190": "use ",
        "1191": ")\n        return ",
        "1192": "To",
        "1193": "all ",
        "1194": "', [], ",
        "1195": "dir, \"",
        "1196": "log_",
        "1197": "enti",
        "1198": "modu",
        "1199": "'.",
        "1200": "zone",
        "1201": "django.db.models.fields.",
        "1202": "loc",
        "1203": "p_",
        "1204": "box_",
        "1205": "]\n        ",
        "1206": "; ",
        "1207": "))",
        "1208": "ron",
        "1209": "Po",
        "1210": "tran",
        "1211": "event",
        "1212": "{\"",
        "1213": "', [], {'",
        "1214": "111111110",
        "1215": "ED",
        "1216": "dic",
        "1217": "alize",
        "1218": "sample",
        "1219": "lete",
        "1220": "ke ",
        "1221": "ID",
        "1222": "s = [",
        "1223": "0.",
        "1224": "__init__(self, ",
        "1225": "': ('django.db.models.fields.",
        "1226": "email",
        "1227": "RO",
        "1228": "max_",
        "1229": "initi",
        "1230": "local",
        "1231": "mul",
        "1232": "siz",
        "1233": "\": \"",
        "1234": "statu",
        "1235": "A ",
        "1236": "map",
        "1237": "DH",
        "1238": ",\n                    ",
        "1239": "quer",
        "1240": "inter",
        "1241": ".get",
        "1242": "for the ",
        "1243": "exten",
        "1244": "hash",
        "1245": "] = ",
        "1246": "b_",
        "1247": "x.",
        "1248": "coding",
        "1249": "Gad",
        "1250": "schema",
        "1251": "setting",
        "1252": "ce_",
        "1253": "cybox_",
        "1254": "Gadget",
        "1255": "cybox_common.",
        "1256": "ref",
        "1257": "te ",
        "1258": "d to ",
        "1259": "return_",
        "1260": "new_",
        "1261": "GE",
        "1262": "process",
        "1263": "all_",
        "1264": "ata",
        "1265": "s'",
        "1266": "Name",
        "1267": "bug",
        "1268": "s and ",
        "1269": "[1]",
        "1270": "ash",
        "1271": "spa",
        "1272": "SS",
        "1273": "righ",
        "1274": " '",
        "1275": "of",
        "1276": ".\n\n    ",
        "1277": "DN",
        "1278": "instance(",
        "1279": "Char",
        "1280": "de ",
        "1281": "param",
        "1282": "sql_",
        "1283": "Type,\n    '",
        "1284": "):\n        \"\"\"",
        "1285": "new",
        "1286": "AL",
        "1287": "struct",
        "1288": "example",
        "1289": "plu",
        "1290": "\n    # ",
        "1291": "context",
        "1292": "cryp",
        "1293": "s\n        ",
        "1294": "str(",
        "1295": "')\n    ",
        "1296": "Field', [], {'",
        "1297": "war",
        "1298": "ful",
        "1299": "render",
        "1300": "Y ",
        "1301": "ted_",
        "1302": "view",
        "1303": "whi",
        "1304": "\")\n        ",
        "1305": "stream",
        "1306": "line ",
        "1307": "),\n            '",
        "1308": "point",
        "1309": "target",
        "1310": " 0",
        "1311": "inp",
        "1312": "()\n    ",
        "1313": "object ",
        "1314": "df",
        "1315": "] ",
        "1316": "conver",
        "1317": ",\n                            ",
        "1318": "data ",
        "1319": "isinstance(",
        "1320": "split",
        "1321": "template",
        "1322": "s are ",
        "1323": "av",
        "1324": "nump",
        "1325": "ima",
        "1326": "None:\n            ",
        "1327": "ator",
        "1328": "ob",
        "1329": "ust ",
        "1330": "under the ",
        "1331": "limit",
        "1332": "simp",
        "1333": " the ",
        "1334": "distri",
        "1335": "record",
        "1336": "\":",
        "1337": "ep",
        "1338": "BC",
        "1339": "indo",
        "1340": ",\n            '",
        "1341": "2.",
        "1342": "output",
        "1343": "ed_",
        "1344": "can",
        "1345": "s in ",
        "1346": "sum",
        "1347": "wid",
        "1348": "': cybox_common.",
        "1349": "gu",
        "1350": "value ",
        "1351": "lean",
        "1352": "Val",
        "1353": "float",
        "1354": "().",
        "1355": "\n                        ",
        "1356": "check_",
        "1357": "ult ",
        "1358": "ight",
        "1359": "1 ",
        "1360": "CON",
        "1361": "you ",
        "1362": "EX",
        "1363": "License ",
        "1364": "Config",
        "1365": "ir",
        "1366": "patch",
        "1367": "io",
        "1368": "AS",
        "1369": "main.",
        "1370": "get ",
        "1371": "'\n        ",
        "1372": "Base",
        "1373": "lob",
        "1374": "orig",
        "1375": "32",
        "1376": ")\n        self.assertTrue(",
        "1377": "pyth",
        "1378": "ition",
        "1379": "WAR",
        "1380": ".append(",
        "1381": "s)",
        "1382": "crypto",
        "1383": "--------------------------------",
        "1384": "mon",
        "1385": "which ",
        "1386": "return self.",
        "1387": " = Gaff",
        "1388": "List",
        "1389": "ct_",
        "1390": "Value",
        "1391": "validat",
        "1392": "np.",
        "1393": "rap",
        "1394": "right ",
        "1395": "int(",
        "1396": "s.append(",
        "1397": "\n\ndef ",
        "1398": "prox",
        "1399": "req",
        "1400": "code ",
        "1401": "Do",
        "1402": "Ma",
        "1403": "Ti",
        "1404": "ten",
        "1405": "es ",
        "1406": "max",
        "1407": ")\n        if ",
        "1408": ") == ",
        "1409": "': 'True",
        "1410": "html",
        "1411": "'t ",
        "1412": "%s ",
        "1413": "over",
        "1414": "sys.",
        "1415": "\n#\n# ",
        "1416": "-8",
        "1417": "File",
        "1418": "Au",
        "1419": "uni",
        "1420": "NO",
        "1421": "None ",
        "1422": "service",
        "1423": "id ",
        "1424": "TR",
        "1425": "f = ",
        "1426": "ution",
        "1427": "\n        \"\"\"\n        ",
        "1428": "format(",
        "1429": "body",
        "1430": "equal",
        "1431": "101110",
        "1432": "):\n    \"\"\"\n    ",
        "1433": "should ",
        "1434": "arra",
        "1435": "p>",
        "1436": "Gadget( ",
        "1437": "mark",
        "1438": "Up",
        "1439": "OU",
        "1440": "Ke",
        "1441": "ile ",
        "1442": "TestC",
        "1443": "file_",
        "1444": "111100",
        "1445": "ase ",
        "1446": "hand",
        "1447": "match",
        "1448": "after",
        "1449": "User",
        "1450": "\n\n\ndef ",
        "1451": "AU",
        "1452": "None, ",
        "1453": "rea",
        "1454": "supp",
        "1455": "\n                                ",
        "1456": "OC",
        "1457": "ing_",
        "1458": "link",
        "1459": "\n\nimport ",
        "1460": "module",
        "1461": "content",
        "1462": "r'",
        "1463": ")\n\n        # ",
        "1464": "parse_",
        "1465": "execute",
        "1466": "'}),\n            '",
        "1467": "_header",
        "1468": "entr",
        "1469": "create_",
        "1470": "\n            if ",
        "1471": "page",
        "1472": "chil",
        "1473": "confir",
        "1474": "\",\n    (0xC",
        "1475": "author",
        "1476": "teg",
        "1477": "url(",
        "1478": "\"] ) ",
        "1479": "SA_",
        "1480": "regist",
        "1481": "remove",
        "1482": "permission",
        "1483": "im",
        "1484": "` ",
        "1485": "proj",
        "1486": ")\n\n    @",
        "1487": "(self):\n        \"\"\"",
        "1488": "thread",
        "1489": "eld ",
        "1490": "handl",
        "1491": "es",
        "1492": "sql ",
        "1493": "\",\n    (0xC0, ",
        "1494": "\",\n    (0xC0, 0x",
        "1495": "scription",
        "1496": "pla",
        "1497": "AC",
        "1498": "debug",
        "1499": "He",
        "1500": "header_",
        "1501": "BC_SHA",
        "1502": ": %s",
        "1503": "re_",
        "1504": "www.",
        "1505": "-1",
        "1506": "ING",
        "1507": "glob",
        "1508": "attribute",
        "1509": "(os.path.join(",
        "1510": "indow",
        "1511": "TY",
        "1512": "Ar",
        "1513": "ea",
        "1514": "\"\n    ",
        "1515": "Add",
        "1516": "tree",
        "1517": ":`",
        "1518": "socket",
        "1519": "Py",
        "1520": "   '",
        "1521": "to the ",
        "1522": "b'",
        "1523": "client.",
        "1524": "net",
        "1525": "only ",
        "1526": "...",
        "1527": "strip",
        "1528": "buff",
        "1529": "s()",
        "1530": "\n#    ",
        "1531": "zip",
        "1532": "amb",
        "1533": "men",
        "1534": "\n        for ",
        "1535": "d by ",
        "1536": "TestCase",
        "1537": "00, ",
        "1538": "https",
        "1539": "print \"",
        "1540": "################################",
        "1541": "Man",
        "1542": "HT",
        "1543": "eta",
        "1544": "OF ",
        "1545": "(x",
        "1546": "ty_",
        "1547": "colle",
        "1548": "zinfo.",
        "1549": "=1",
        "1550": "Com",
        "1551": "er = ",
        "1552": "()\n            ",
        "1553": "sof",
        "1554": "unit",
        "1555": "2.0",
        "1556": "tag",
        "1557": "l.",
        "1558": "row",
        "1559": "input",
        "1560": "cho",
        "1561": ")\n\n\nclass ",
        "1562": "Time",
        "1563": "test.",
        "1564": "fail",
        "1565": "parser_arg",
        "1566": "ub",
        "1567": "application",
        "1568": "iter",
        "1569": "config.",
        "1570": "'),\n        ",
        "1571": "()\n",
        "1572": "s a ",
        "1573": "search",
        "1574": "DNS_",
        "1575": "ong",
        "1576": "dis",
        "1577": "Conne",
        "1578": "s: ",
        "1579": "\n            # ",
        "1580": "s['",
        "1581": "\n      ",
        "1582": "noti",
        "1583": "try:\n            ",
        "1584": "change",
        "1585": "< ",
        "1586": "output_",
        "1587": "db_",
        "1588": "image",
        "1589": "t, ",
        "1590": "], ",
        "1591": "== '",
        "1592": "LE",
        "1593": "ib",
        "1594": "Al",
        "1595": "viron",
        "1596": "so ",
        "1597": "s:\n            ",
        "1598": "foo",
        "1599": "Property",
        "1600": "~~",
        "1601": "org",
        "1602": "\"\n        ",
        "1603": "| ",
        "1604": "ment ",
        "1605": "Parser",
        "1606": "=\"20090214115",
        "1607": "\", sql_",
        "1608": "hf_",
        "1609": "_url",
        "1610": "ath",
        "1611": "Ver",
        "1612": "y, ",
        "1613": "ru",
        "1614": ".__",
        "1615": "exist",
        "1616": "range(",
        "1617": "giv",
        "1618": "or.",
        "1619": "side",
        "1620": "11100",
        "1621": "110110",
        "1622": "_cli.",
        "1623": "( g.",
        "1624": "defin",
        "1625": "\n\nclass ",
        "1626": "cop",
        "1627": "ature",
        "1628": "extra",
        "1629": "\n        self.assert",
        "1630": "pattern",
        "1631": "return_value",
        "1632": "frame",
        "1633": "**kwargs",
        "1634": "_re",
        "1635": "16",
        "1636": "sw",
        "1637": "if",
        "1638": "\n                            ",
        "1639": "may ",
        "1640": "mock.",
        "1641": "setup",
        "1642": "https://",
        "1643": "LL",
        "1644": "pop",
        "1645": "))\n    ",
        "1646": "tot",
        "1647": ")\n\n\ndef ",
        "1648": " as ",
        "1649": "(self):\n        self.",
        "1650": "in_",
        "1651": "\")\n    ",
        "1652": "tup",
        "1653": "Option",
        "1654": "(?",
        "1655": "command",
        "1656": "okie",
        "1657": "script[\"n",
        "1658": "polic",
        "1659": "pp",
        "1660": "document",
        "1661": "600",
        "1662": "Data",
        "1663": "____",
        "1664": "_migration",
        "1665": "ObjectProperty",
        "1666": "s': ",
        "1667": "\n\"\"\"",
        "1668": "wa",
        "1669": "MO",
        "1670": "s = []",
        "1671": "number ",
        "1672": "attr(",
        "1673": "matri",
        "1674": "1011111111",
        "1675": "13",
        "1676": "licen",
        "1677": "e.",
        "1678": "ull",
        "1679": "cond",
        "1680": "no ",
        "1681": "time.",
        "1682": "         ",
        "1683": "pos",
        "1684": "scal",
        "1685": "ght",
        "1686": "prefix",
        "1687": "Cre",
        "1688": "TO",
        "1689": "eld(",
        "1690": "data = ",
        "1691": "Not",
        "1692": " == '",
        "1693": "and_",
        "1694": "00, 0x",
        "1695": "s. ",
        "1696": "e_",
        "1697": "\",\n    (0x00, 0x",
        "1698": "file.",
        "1699": " \"",
        "1700": "Error(",
        "1701": "ing the ",
        "1702": "else:\n                ",
        "1703": "help",
        "1704": "=self.",
        "1705": ".com/",
        "1706": "VER",
        "1707": "AB",
        "1708": "%s\" % ",
        "1709": "_type",
        "1710": "parser.",
        "1711": "\n    def test_",
        "1712": "Header",
        "1713": "_CBC_SHA",
        "1714": "',\n        ",
        "1715": "lement",
        "1716": "Handl",
        "1717": "_p",
        "1718": "ign",
        "1719": "when ",
        "1720": "e the ",
        "1721": "K_",
        "1722": "emp",
        "1723": "numpy.",
        "1724": "s(self, ",
        "1725": "128",
        "1726": "has_",
        "1727": "http://www.",
        "1728": "_test_",
        "1729": "umn",
        "1730": ":\n      ",
        "1731": "1000",
        "1732": "have ",
        "1733": "\n  '",
        "1734": "SI",
        "1735": "save",
        "1736": "d in ",
        "1737": "ard",
        "1738": "id, ",
        "1739": "get_version",
        "1740": "table",
        "1741": "python",
        "1742": "Node(",
        "1743": " = None",
        "1744": "\n            self.",
        "1745": "mod",
        "1746": "nel",
        "1747": "dict(",
        "1748": "f.write",
        "1749": "Connection",
        "1750": "token.",
        "1751": "ning",
        "1752": "AME",
        "1753": "object_",
        "1754": "ult = ",
        "1755": "-*",
        "1756": "request.",
        "1757": "cache",
        "1758": "Unle",
        "1759": "bar",
        "1760": "s for ",
        "1761": "poin",
        "1762": "()\n        self.",
        "1763": "Key",
        "1764": "):\n        \"\"\"\n        ",
        "1765": "unt",
        "1766": "string ",
        "1767": "buted ",
        "1768": "vari",
        "1769": "it_",
        "1770": "',\n    ",
        "1771": "paren",
        "1772": "Field(",
        "1773": "has ",
        "1774": ".\n\n        ",
        "1775": "lef",
        "1776": "s[0]",
        "1777": "while ",
        "1778": "ive ",
        "1779": "_from_",
        "1780": "config=",
        "1781": "ance",
        "1782": "ory",
        "1783": "with the ",
        "1784": "x ",
        "1785": "add(",
        "1786": "cf",
        "1787": "den",
        "1788": "RSA_",
        "1789": "utf",
        "1790": "resour",
        "1791": "TP",
        "1792": "timeout",
        "1793": "Version",
        "1794": "plugin",
        "1795": "bb",
        "1796": "ZIP",
        "1797": "%}",
        "1798": "'] = ",
        "1799": "_list",
        "1800": ".  ",
        "1801": "Log",
        "1802": "Mess",
        "1803": "tmp",
        "1804": "_get_",
        "1805": "loop",
        "1806": "Mock",
        "1807": "dest",
        "1808": "Info",
        "1809": "else ",
        "1810": "print_",
        "1811": "addres",
        "1812": "cu",
        "1813": "teger",
        "1814": ":\n            self.",
        "1815": "cer",
        "1816": "amp",
        "1817": "igh",
        "1818": "make",
        "1819": "or_",
        "1820": "400",
        "1821": "initial_",
        "1822": "><",
        "1823": "15",
        "1824": "API",
        "1825": "0 ",
        "1826": "ameter",
        "1827": "ly",
        "1828": "'s ",
        "1829": ".\n        \"\"\"\n        ",
        "1830": "atch",
        "1831": "ed to ",
        "1832": "3.",
        "1833": "err",
        "1834": "distributed ",
        "1835": "_b",
        "1836": "mation",
        "1837": "processe",
        "1838": "Input",
        "1839": "name='",
        "1840": "Cop",
        "1841": "      ",
        "1842": "',\n  '",
        "1843": "ail",
        "1844": "Fo",
        "1845": "vide",
        "1846": ":\n            raise ",
        "1847": "edge",
        "1848": "filter",
        "1849": "space",
        "1850": "serialize",
        "1851": "Zip",
        "1852": "license",
        "1853": "source",
        "1854": "\n        return ",
        "1855": "nex",
        "1856": "AD",
        "1857": "c ",
        "1858": "b.",
        "1859": "s', '",
        "1860": "encoding",
        "1861": "factor",
        "1862": "h.",
        "1863": "_to_",
        "1864": "calle",
        "1865": "confirmation",
        "1866": "offset",
        "1867": "server.",
        "1868": "ame ",
        "1869": "put ",
        "1870": ":\n                        ",
        "1871": "ATION",
        "1872": "Rai",
        "1873": "func",
        "1874": "core",
        "1875": "): \"TLS_DH",
        "1876": "CO",
        "1877": "multi",
        "1878": "Window",
        "1879": "list of ",
        "1880": " = 0",
        "1881": ")\n\n    # ",
        "1882": "data.",
        "1883": " = [",
        "1884": "current_",
        "1885": "ObjectPropertyType,\n    '",
        "1886": "t(",
        "1887": "At",
        "1888": ")\n            self.",
        "1889": "lear",
        "1890": "time ",
        "1891": "2, ",
        "1892": "logging.",
        "1893": "You ",
        "1894": "dep",
        "1895": "}}",
        "1896": "DB",
        "1897": "migration.",
        "1898": "call('",
        "1899": "Copy",
        "1900": "utf-8",
        "1901": "serve",
        "1902": "PO",
        "1903": "org/",
        "1904": "Bo",
        "1905": "s (",
        "1906": "gener",
        "1907": "dit",
        "1908": "-1]",
        "1909": "' in ",
        "1910": "Ge",
        "1911": "%(",
        "1912": "Copyright ",
        "1913": "enable",
        "1914": "):\n        self.",
        "1915": "name__",
        "1916": "THE ",
        "1917": "extension",
        "1918": "value = ",
        "1919": "raw_",
        "1920": "hook",
        "1921": "10110",
        "1922": "compress",
        "1923": "cookie",
        "1924": "o.",
        "1925": "api.",
        "1926": "max_length",
        "1927": "null",
        "1928": "RAN",
        "1929": "iz",
        "1930": "_string",
        "1931": "'\n    ",
        "1932": ",\n                                        ",
        "1933": "ort_",
        "1934": "ine",
        "1935": "reader",
        "1936": "_test_migration.",
        "1937": "_test_migration.migration",
        "1938": "start_",
        "1939": "a.",
        "1940": "must ",
        "1941": "fol",
        "1942": "expected_",
        "1943": "memb",
        "1944": "ES_",
        "1945": "geome",
        "1946": "\nfrom django.",
        "1947": "args, ",
        "1948": "os",
        "1949": "raise",
        "1950": "each ",
        "1951": ".strip",
        "1952": "ind",
        "1953": "IT",
        "1954": "code_",
        "1955": "fication",
        "1956": "message ",
        "1957": "') ",
        "1958": "\n        else:\n            ",
        "1959": "\n\n    def test_",
        "1960": "day",
        "1961": "result = ",
        "1962": "')\n",
        "1963": "URL",
        "1964": "other",
        "1965": "size ",
        "1966": "method ",
        "1967": "lish",
        "1968": "contain",
        "1969": "))\n            ",
        "1970": "update(",
        "1971": "]]",
        "1972": "og",
        "1973": "ape",
        "1974": ")\n\t\tself.assert",
        "1975": "description",
        "1976": "age = ",
        "1977": "but ",
        "1978": "environ",
        "1979": "pub",
        "1980": "datetime.",
        "1981": "now",
        "1982": "{\n            ",
        "1983": "s that ",
        "1984": "fn",
        "1985": "Fil",
        "1986": "ValueError",
        "1987": "instance ",
        "1988": "Raise",
        "1989": "','",
        "1990": ")\n\n            ",
        "1991": "Plu",
        "1992": "a_",
        "1993": "\n\n        # ",
        "1994": "tem",
        "1995": "with('",
        "1996": "})\n        ",
        "1997": "auto",
        "1998": "ss ",
        "1999": ":\n            return ",
        "2000": "red",
        "2001": "Form",
        "2002": "task",
        "2003": "ed.",
        "2004": ",\n                                                ",
        "2005": "directory",
        "2006": "_P",
        "2007": "form ",
        "2008": "Defa",
        "2009": "head",
        "2010": "\n\n    # ",
        "2011": ", b",
        "2012": "lank",
        "2013": "D ",
        "2014": "cket",
        "2015": "red ",
        "2016": "rando",
        "2017": "ally ",
        "2018": "atu",
        "2019": "stdo",
        "2020": "script[\"add2",
        "2021": "HTTP",
        "2022": "delete",
        "2023": "origin",
        "2024": "proto",
        "2025": "will be ",
        "2026": ") for ",
        "2027": ", e",
        "2028": "opt_",
        "2029": "ate_",
        "2030": "=\"sql ",
        "2031": "{% ",
        "2032": "scr_",
        "2033": "dir, \"hf_",
        "2034": "password",
        "2035": "Run",
        "2036": "\n\n    def get_",
        "2037": "key ",
        "2038": "30",
        "2039": "argument",
        "2040": "(1",
        "2041": "_file",
        "2042": "Cl",
        "2043": "_id = ",
        "2044": "\n\n    @",
        "2045": "given ",
        "2046": "1111100",
        "2047": "termi",
        "2048": "ning ",
        "2049": "(0",
        "2050": "Request",
        "2051": "whe",
        "2052": ":]",
        "2053": "ct(",
        "2054": " or ",
        "2055": "root",
        "2056": "s_to_",
        "2057": "_0",
        "2058": "rule",
        "2059": "send_",
        "2060": "decode",
        "2061": "is a ",
        "2062": "location",
        "2063": "ANY ",
        "2064": "MA",
        "2065": "i in ",
        "2066": "================",
        "2067": "not in ",
        "2068": "langu",
        "2069": "v_",
        "2070": "(os.path.join(test_",
        "2071": ":type ",
        "2072": "f.write('",
        "2073": "\"] = Gaff",
        "2074": "kwarg",
        "2075": "Set",
        "2076": "Cont",
        "2077": "US",
        "2078": "olean",
        "2079": "dump",
        "2080": "cap",
        "2081": "300",
        "2082": "' % (",
        "2083": "IO",
        "2084": "logger.",
        "2085": "raph",
        "2086": "inclu",
        "2087": "user_",
        "2088": "softw",
        "2089": "LOG",
        "2090": ")\n                    ",
        "2091": "P<",
        "2092": "pret",
        "2093": "():\n    ",
        "2094": " = True",
        "2095": "__name__",
        "2096": "objects.",
        "2097": "instr",
        "2098": "input_",
        "2099": "For",
        "2100": "Migration",
        "2101": "': 'True'}),\n            '",
        "2102": "\".",
        "2103": "hi",
        "2104": "ge ",
        "2105": "befo",
        "2106": "\" + ",
        "2107": "ither ",
        "2108": "(), ",
        "2109": "):\n        if ",
        "2110": "ize",
        "2111": "linen",
        "2112": "_dict",
        "2113": "property(\"",
        "2114": "roll",
        "2115": "mode",
        "2116": "rece",
        "2117": "presen",
        "2118": "', 'b",
        "2119": "expected",
        "2120": "Auth",
        "2121": "dtype",
        "2122": "#### ",
        "2123": ")\n\n\t",
        "2124": "ice",
        "2125": ":: ",
        "2126": "df.",
        "2127": "UI",
        "2128": "outf.write('",
        "2129": "ree ",
        "2130": "addr",
        "2131": "',\n            '",
        "2132": "UN",
        "2133": "admin",
        "2134": "contin",
        "2135": "id=",
        "2136": "ent = ",
        "2137": "']\n        ",
        "2138": "Col",
        "2139": "on_",
        "2140": "coder",
        "2141": "crash",
        "2142": "WITH_A",
        "2143": "WITH_AES_",
        "2144": "options",
        "2145": "2 ",
        "2146": "DO",
        "2147": "Manag",
        "2148": "(?P<",
        "2149": "'<",
        "2150": "(f",
        "2151": "Sh",
        "2152": "[[",
        "2153": "stm",
        "2154": "abi",
        "2155": "specific",
        "2156": "WARRAN",
        "2157": ") + ",
        "2158": "shutil.",
        "2159": "r['",
        "2160": "11011111111",
        "2161": "CM",
        "2162": "(c",
        "2163": "TYP",
        "2164": "ile",
        "2165": "'), ",
        "2166": "[2",
        "2167": "was ",
        "2168": "trace",
        "2169": "s = self.",
        "2170": "40",
        "2171": "tl",
        "2172": "feren",
        "2173": "true",
        "2174": "reak",
        "2175": "s or "
    }
}